<unk>	0
<s>	0
</s>	0
▁$	-0
▁t	-1
▁th	-2
▁a	-3
in	-4
▁\	-5
▁the	-6
le	-7
er	-8
▁s	-9
on	-10
is	-11
re	-12
▁w	-13
at	-14
▁c	-15
▁o	-16
an	-17
ra	-18
▁an	-19
▁p	-20
▁b	-21
en	-22
▁f	-23
it	-24
ot	-25
▁is	-26
es	-27
▁of	-28
rac	-29
$.	-30
frac	-31
▁and	-32
}{	-33
or	-34
▁that	-35
^2	-36
ro	-37
al	-38
▁=	-39
▁$\	-40
▁in	-41
▁n	-42
ve	-43
ang	-44
$,	-45
▁d	-46
ri	-47
et	-48
▁m	-49
ion	-50
angle	-51
▁e	-52
ic	-53
▁h	-54
▁to	-55
qu	-56
ar	-57
as	-58
▁we	-59
ing	-60
_{	-61
um	-62
ll	-63
im	-64
▁+	-65
ct	-66
ly	-67
▁1	-68
▁(	-69
▁so	-70
▁T	-71
us	-72
^{	-73
-1	-74
ow	-75
▁A	-76
ed	-77
▁be	-78
▁"	-79
id	-80
ut	-81
os	-82
+1	-83
_1	-84
▁Th	-85
▁g	-86
gh	-87
ce	-88
▁I	-89
▁2	-90
ir	-91
▁on	-92
dot	-93
}$	-94
▁for	-95
me	-96
ent	-97
▁are	-98
▁re	-99
▁l	-100
ght	-101
▁-	-102
ver	-103
▁wh	-104
▁S	-105
)$	-106
iv	-107
▁con	-108
ch	-109
2}	-110
te	-111
=\	-112
▁B	-113
ou	-114
▁ha	-115
am	-116
▁C	-117
ft	-118
ge	-119
ith	-120
▁pro	-121
right	-122
int	-123
▁have	-124
ine	-125
_2	-126
)=	-127
{1	-128
▁it	-129
}\	-130
cdot	-131
ers	-132
th	-133
lt	-134
▁&	-135
if	-136
om	-137
▁su	-138
..	-139
oint	-140
▁with	-141
▁P	-142
▁le	-143
▁N	-144
ble	-145
▁this	-146
irc	-147
ies	-148
la	-149
▁by	-150
ect	-151
st	-152
▁$(	-153
▁L	-154
▁can	-155
▁as	-156
umb	-157
ive	-158
▁y	-159
▁numb	-160
ote	-161
▁at	-162
▁x	-163
ere	-164
imp	-165
amp	-166
▁all	-167
BC	-168
rt	-169
▁W	-170
equ	-171
ol	-172
+\	-173
qua	-174
sq	-175
left	-176
sqrt	-177
riangle	-178
ich	-179
▁F	-180
od	-181
▁then	-182
{1}{	-183
sum	-184
),	-185
▁point	-186
▁0	-187
▁ex	-188
▁3	-189
ution	-190
ig	-191
ore	-192
=1	-193
▁which	-194
$$	-195
(1	-196
00	-197
▁if	-198
ath	-199
ation	-200
."	-201
il	-202
ince	-203
impl	-204
)\	-205
▁sol	-206
▁$2	-207
▁pos	-208
(\	-209
▁there	-210
▁k	-211
▁Let	-212
▁$$	-213
gt	-214
^2+	-215
ca	-216
implies	-217
rom	-218
un	-219
{\	-220
▁$1	-221
ab	-222
ence	-223
xt	-224
▁or	-225
▁not	-226
▁such	-227
▁equ	-228
ay	-229
ust	-230
lo	-231
row	-232
}$.	-233
▁se	-234
ph	-235
ma	-236
▁D	-237
end	-238
▁We	-239
▁wr	-240
▁number	-241
math	-242
▁get	-243
red	-244
▁H	-245
teg	-246
ist	-247
▁int	-248
pp	-249
▁integ	-250
▁solution	-251
ur	-252
)^2	-253
ck	-254
▁\[	-255
quare	-256
^3	-257
over	-258
(2	-259
equiv	-260
▁from	-261
▁sh	-262
▁The	-263
ls	-264
blem	-265
-2	-266
▁st	-267
ircle	-268
ase	-269
}{2}	-270
-\	-271
▁one	-272
-1}	-273
text	-274
line	-275
01	-276
▁M	-277
ak	-278
geq	-279
ity	-280
▁v	-281
+2	-282
+1}	-283
,\	-284
bo	-285
▁4	-286
▁tw	-287
ach	-288
dots	-289
eg	-290
▁Now	-291
mod	-292
ill	-293
▁Then	-294
leq	-295
ction	-296
arrow	-297
)(	-298
oll	-299
{2	-300
ue	-301
▁two	-302
.$	-303
▁ch	-304
▁problem	-305
▁cont	-306
);	-307
AB	-308
triangle	-309
ga	-310
▁us	-311
)$.	-312
ose	-313
0$	-314
▁E	-315
ld	-316
▁If	-317
▁me	-318
ind	-319
▁O	-320
sin	-321
▁you	-322
rad	-323
ide	-324
}}	-325
0,	-326
yc	-327
▁any	-328
▁triangle	-329
).	-330
▁wrote	-331
overline	-332
▁[	-333
se	-334
▁giv	-335
▁pa	-336
bb	-337
▁posit	-338
▁:	-339
=2	-340
tion	-341
▁r	-342
ul	-343
ment	-344
laim	-345
▁So	-346
lso	-347
act	-348
of	-349
)-	-350
art	-351
ther	-352
▁let	-353
dd	-354
mathbb	-355
ant	-356
lic	-357
▁some	-358
▁numbers	-359
▁res	-360
▁com	-361
)+	-362
^{\	-363
▁line	-364
ame	-365
▁since	-366
ad	-367
▁each	-368
ite	-369
oth	-370
ally	-371
...	-372
▁has	-373
▁do	-374
AC	-375
▁must	-376
▁positive	-377
▁only	-378
ast	-379
_3	-380
ral	-381
irst	-382
ible	-383
▁Pro	-384
▁ver	-385
mid	-386
▁ne	-387
▁will	-388
pha	-389
▁j	-390
alpha	-391
▁div	-392
pmod	-393
ign	-394
▁R	-395
eta	-396
one	-397
ong	-398
▁but	-399
mega	-400
▁per	-401
▁i	-402
ell	-403
-1)	-404
ollow	-405
circ	-406
Th	-407
}=\	-408
ate	-409
fore	-410
▁follow	-411
▁pri	-412
▁This	-413
}$,	-414
ight	-415
▁circle	-416
▁points	-417
▁show	-418
ould	-419
quad	-420
asu	-421
nd	-422
▁{	-423
ABC	-424
ps	-425
ple	-426
▁prove	-427
radic	-428
ult	-429
(0	-430
and	-431
ain	-432
asured	-433
ef	-434
loor	-435
▁set	-436
measured	-437
▁other	-438
measuredangle	-439
90	-440
▁5	-441
▁where	-442
3}	-443
▁Thus	-444
^{2	-445
enter	-446
floor	-447
▁integer	-448
ersect	-449
)$,	-450
Let	-451
▁\\	-452
cdots	-453
nt	-454
_0	-455
arly	-456
,2	-457
rightarrow	-458
ake	-459
{(	-460
ice	-461
xed	-462
▁also	-463
▁intersect	-464
▁,	-465
omega	-466
use	-467
▁square	-468
▁wor	-469
pi	-470
iff	-471
}{2	-472
ial	-473
ie	-474
du	-475
'$	-476
▁un	-477
▁val	-478
,1	-479
▁same	-480
ition	-481
)}	-482
per	-483
align	-484
imil	-485
ne	-486
cos	-487
▁equal	-488
cap	-489
▁sum	-490
sw	-491
_1,	-492
▁see	-493
square	-494
▁$3	-495
now	-496
ss	-497
sid	-498
est	-499
▁exist	-500
▁than	-501
}{\	-502
*}	-503
▁Since	-504
up	-505
ven	-506
cause	-507
sider	-508
▁There	-509
▁cyc	-510
ard	-511
bs	-512
\]	-513
ree	-514
+1)	-515
▁first	-516
erm	-517
02	-518
ices	-519
dfrac	-520
swer	-521
point	-522
▁case	-523
ralle	-524
▁gives	-525
▁integers	-526
,$	-527
▁col	-528
^{2}	-529
▁It	-530
gle	-531
raw	-532
^2-	-533
[/	-534
ous	-535
▁ar	-536
ular	-537
▁prime	-538
imes	-539
_{1	-540
}+\	-541
ans	-542
▁co	-543
pect	-544
to	-545
▁contradic	-546
▁eas	-547
;\	-548
sible	-549
▁X	-550
de	-551
80	-552
▁odd	-553
▁For	-554
▁$$\	-555
▁know	-556
▁work	-557
▁tr	-558
lack	-559
▁mid	-560
bc	-561
;=	-562
▁real	-563
{3	-564
▁answer	-565
▁angle	-566
_1$	-567
▁6	-568
▁di	-569
99	-570
▁Q	-571
▁\(	-572
boxed	-573
▁abo	-574
^4	-575
ag	-576
ively	-577
very	-578
bin	-579
AD	-580
ond	-581
▁equation	-582
▁pair	-583
=1}	-584
ppose	-585
egin	-586
▁least	-587
ces	-588
$"	-589
▁draw	-590
begin	-591
▁ro	-592
))	-593
▁just	-594
$."	-595
▁Hence	-596
▁contradiction	-597
▁claim	-598
▁even	-599
▁find	-600
▁al	-601
quot	-602
▁form	-603
▁fact	-604
▁no	-605
▁z	-606
ldots	-607
▁midpoint	-608
ides	-609
rallel	-610
pa	-611
▁done	-612
▁was	-613
iz	-614
▁respect	-615
ater	-616
▁cyclic	-617
▁Note	-618
▁In	-619
_{2	-620
ost	-621
▁inc	-622
▁const	-623
0}	-624
cd	-625
▁tang	-626
ru	-627
▁\]	-628
▁every	-629
▁because	-630
▁when	-631
▁Prove	-632
sume	-633
▁|	-634
ays	-635
xy	-636
^\	-637
▁part	-638
▁diff	-639
rou	-640
▁ob	-641
▁conc	-642
pe	-643
▁both	-644
▁G	-645
▁sequ	-646
▁circ	-647
▁By	-648
ff	-649
der	-650
ired	-651
▁these	-652
icular	-653
▁Therefore	-654
bf	-655
▁1$	-656
-1$	-657
▁implies	-658
▁Y	-659
+3	-660
vi	-661
▁divis	-662
▁circum	-663
ax	-664
em	-665
▁tangent	-666
ng	-667
▁dist	-668
▁now	-669
)--	-670
▁does	-671
ors	-672
▁BC	-673
▁simil	-674
olution	-675
▁des	-676
Right	-677
pend	-678
((	-679
isf	-680
▁follows	-681
isect	-682
▁sat	-683
Rightarrow	-684
▁possible	-685
wh	-686
0.	-687
/2	-688
pt	-689
el	-690
12	-691
▁$4	-692
▁satisf	-693
▁differ	-694
black	-695
_2$	-696
ving	-697
ality	-698
}(	-699
▁But	-700
rough	-701
times	-702
▁bisect	-703
ry	-704
not	-705
ments	-706
all	-707
▁go	-708
▁fun	-709
ases	-710
ink	-711
ues	-712
pro	-713
)}{	-714
blacksquare	-715
▁Claim	-716
Pro	-717
▁means	-718
▁po	-719
▁ABC	-720
we	-721
binom	-722
▁cond	-723
▁sequence	-724
-3	-725
▁AB	-726
▁through	-727
▁ele	-728
▁indu	-729
▁condition	-730
11	-731
▁}	-732
}=	-733
▁fin	-734
▁lies	-735
lu	-736
ound	-737
},	-738
▁exists	-739
▁K	-740
▁respectively	-741
▁7	-742
ac	-743
▁function	-744
▁(1	-745
our	-746
▁value	-747
▁Su	-748
ise	-749
▁app	-750
▁.	-751
+1$	-752
▁our	-753
▁circumc	-754
▁non	-755
{1}{2}	-756
▁easy	-757
▁vert	-758
tfrac	-759
▁desired	-760
▁need	-761
)=\	-762
ines	-763
▁tri	-764
▁AC	-765
EF	-766
amma	-767
▁mo	-768
▁cle	-769
▁term	-770
=3	-771
▁side	-772
vious	-773
▁consider	-774
(3	-775
com	-776
▁min	-777
▁Wh	-778
lfloor	-779
neq	-780
ip	-781
cal	-782
rfloor	-783
▁mod	-784
▁poly	-785
▁would	-786
textbf	-787
,3	-788
▁lar	-789
▁man	-790
theta	-791
}{1	-792
res	-793
beta	-794
)=1	-795
▁dot	-796
▁right	-797
its	-798
▁solutions	-799
ngth	-800
▁exp	-801
orem	-802
ik	-803
▁pla	-804
fty	-805
▁0$	-806
▁its	-807
infty	-808
$-	-809
cond	-810
{4	-811
The	-812
▁8	-813
▁ed	-814
▁hence	-815
inear	-816
ting	-817
▁As	-818
▁use	-819
▁de	-820
▁most	-821
pendicular	-822
▁into	-823
▁center	-824
les	-825
▁note	-826
log	-827
}{4	-828
▁\[\	-829
fter	-830
▁den	-831
^2$	-832
▁cho	-833
_2,	-834
▁intersection	-835
▁out	-836
▁they	-837
ord	-838
▁lab	-839
▁bet	-840
▁(2	-841
▁perpendicular	-842
▁length	-843
▁quad	-844
▁def	-845
▁true	-846
▁given	-847
▁$1$	-848
for	-849
We	-850
▁sm	-851
▁following	-852
▁them	-853
CD	-854
▁qu	-855
▁suff	-856
""	-857
▁vertices	-858
▁inequ	-859
▁three	-860
ject	-861
▁Con	-862
▁9	-863
▁second	-864
met	-865
▁above	-866
▁thus	-867
▁""	-868
ok	-869
▁$|	-870
▁root	-871
0$.	-872
_4	-873
▁take	-874
▁more	-875
tt	-876
▁he	-877
ass	-878
▁my	-879
▁imp	-880
wise	-881
parallel	-882
▁1}	-883
old	-884
▁cor	-885
ish	-886
BD	-887
▁coll	-888
omial	-889
▁result	-890
gcd	-891
nu	-892
.$$	-893
5$	-894
▁many	-895
▁similar	-896
▁How	-897
▁contain	-898
ute	-899
0\	-900
▁mult	-901
▁comp	-902
tain	-903
PQ	-904
ient	-905
ative	-906
imum	-907
ween	-908
▁collinear	-909
▁think	-910
▁q	-911
alle	-912
ever	-913
▁Suppose	-914
^{1	-915
--	-916
=(	-917
▁up	-918
ither	-919
ateral	-920
▁lo	-921
▁between	-922
ter	-923
▁sides	-924
;1	-925
ves	-926
▁max	-927
})	-928
__	-929
▁here	-930
▁well	-931
ount	-932
idth	-933
▁exact	-934
rect	-935
▁assume	-936
▁different	-937
▁1)	-938
bd	-939
▁inequality	-940
\\	-941
+4	-942
able	-943
ym	-944
}$$	-945
(-	-946
▁proof	-947
▁using	-948
▁Proof	-949
5,	-950
0$,	-951
perp	-952
▁way	-953
nomial	-954
▁dig	-955
▁bisector	-956
_{\	-957
▁comple	-958
▁induction	-959
▁U	-960
?"	-961
▁*	-962
▁over	-963
33	-964
));	-965
width	-966
▁polynomial	-967
▁inter	-968
▁add	-969
▁lines	-970
ike	-971
▁what	-972
....	-973
mathcal	-974
icient	-975
▁row	-976
▁works	-977
^2}	-978
4,	-979
▁ins	-980
▁exactly	-981
//	-982
sion	-983
▁ref	-984
^2\	-985
bset	-986
ora	-987
gain	-988
▁how	-989
▁gre	-990
{5	-991
▁order	-992
▁hold	-993
ange	-994
66	-995
gin	-996
▁squares	-997
\}$	-998
▁bo	-999
pm	-1000
qquad	-1001
AP	-1002
;$	-1003
-4	-1004
ations	-1005
cyc	-1006
cc	-1007
▁J	-1008
ower	-1009
▁12	-1010
onal	-1011
)}\	-1012
=1$	-1013
ale	-1014
}+	-1015
asing	-1016
}{3	-1017
▁1,	-1018
▁Find	-1019
▁satisfy	-1020
raph	-1021
AM	-1022
▁inf	-1023
yle	-1024
▁90	-1025
▁did	-1026
▁$2$	-1027
▁either	-1028
inct	-1029
▁triangles	-1030
▁area	-1031
▁2\	-1032
eck	-1033
lta	-1034
so	-1035
60	-1036
uch	-1037
Long	-1038
=4	-1039
▁(\	-1040
▁10	-1041
ually	-1042
▁seg	-1043
(1)	-1044
ize	-1045
▁-1	-1046
ack	-1047
▁distinct	-1048
▁left	-1049
^2)	-1050
▁values	-1051
▁after	-1052
(&	-1053
lim	-1054
AE	-1055
▁Also	-1056
ved	-1057
ance	-1058
Proof	-1059
▁pre	-1060
-2}	-1061
▁want	-1062
▁fi	-1063
odot	-1064
▁elements	-1065
▁cases	-1066
;,	-1067
^2}{	-1068
▁constant	-1069
▁smalle	-1070
ield	-1071
1,	-1072
DE	-1073
ated	-1074
▁constru	-1075
▁te	-1076
be	-1077
ough	-1078
lying	-1079
og	-1080
▁like	-1081
▁end	-1082
ick	-1083
min	-1084
orall	-1085
ress	-1086
+2}	-1087
)=2	-1088
▁201	-1089
▁Z	-1090
▁sub	-1091
.\]	-1092
▁infin	-1093
(4	-1094
▁bound	-1095
phi	-1096
▁1$.	-1097
forall	-1098
14	-1099
abc	-1100
.5	-1101
are	-1102
tex	-1103
lection	-1104
style	-1105
sim	-1106
▁theorem	-1107
25	-1108
ener	-1109
▁tak	-1110
alent	-1111
▁Case	-1112
▁\{	-1113
ges	-1114
▁am	-1115
▁divisible	-1116
▁circumcircle	-1117
ram	-1118
ero	-1119
bser	-1120
ilon	-1121
psilon	-1122
▁vertex	-1123
▁don	-1124
mon	-1125
ways	-1126
▁equiv	-1127
egative	-1128
▁diag	-1129
▁obtain	-1130
▁again	-1131
ary	-1132
which	-1133
lue	-1134
prod	-1135
▁clearly	-1136
ari	-1137
▁check	-1138
▁terms	-1139
▁An	-1140
^2=	-1141
▁rema	-1142
10	-1143
▁should	-1144
^3+	-1145
://	-1146
$\	-1147
ile	-1148
▁last	-1149
▁pass	-1150
▁meet	-1151
▁u	-1152
_1+	-1153
▁about	-1154
▁en	-1155
{2}	-1156
emma	-1157
▁obvious	-1158
▁red	-1159
64	-1160
▁2,	-1161
ril	-1162
radi	-1163
▁ori	-1164
▁pairs	-1165
}-\	-1166
▁say	-1167
pla	-1168
▁denote	-1169
▁2^	-1170
▁equivalent	-1171
XY	-1172
98	-1173
bda	-1174
▁$5	-1175
6$	-1176
ambda	-1177
▁graph	-1178
ins	-1179
)&	-1180
ure	-1181
▁From	-1182
other	-1183
▁AD	-1184
▁cannot	-1185
ates	-1186
▁yield	-1187
lambda	-1188
=1}^{	-1189
rilateral	-1190
atri	-1191
67	-1192
(0)	-1193
▁deg	-1194
13	-1195
itt	-1196
▁...	-1197
)^	-1198
▁suffices	-1199
▁less	-1200
▁2$	-1201
15	-1202
▁tot	-1203
edi	-1204
max	-1205
▁Consider	-1206
imilarly	-1207
▁may	-1208
▁post	-1209
▁AM	-1210
ime	-1211
▁play	-1212
iqu	-1213
▁simp	-1214
HS	-1215
lan	-1216
\)	-1217
,0	-1218
44	-1219
_{2}	-1220
▁V	-1221
ear	-1222
eterm	-1223
▁quadrilateral	-1224
▁prim	-1225
BA	-1226
▁reflection	-1227
urn	-1228
Solution	-1229
▁always	-1230
▁ste	-1231
▁$\{	-1232
▁2^{	-1233
gamma	-1234
▁However	-1235
▁easi	-1236
▁1$,	-1237
pos	-1238
ark	-1239
^*	-1240
otice	-1241
▁htt	-1242
CA	-1243
=1}^	-1244
▁infinite	-1245
▁large	-1246
^2+2	-1247
▁origin	-1248
)--(	-1249
▁sym	-1250
▁cl	-1251
▁ax	-1252
85	-1253
▁lem	-1254
▁holds	-1255
▁make	-1256
▁total	-1257
▁parallel	-1258
▁color	-1259
▁count	-1260
iple	-1261
}{2}$	-1262
▁time	-1263
▁circles	-1264
',	-1265
▁$[	-1266
65	-1267
=0$	-1268
cess	-1269
▁ways	-1270
0,1	-1271
eter	-1272
72	-1273
|\	-1274
umn	-1275
6,	-1276
OG	-1277
▁bas	-1278
▁gener	-1279
}{2}\	-1280
atrix	-1281
▁ac	-1282
▁And	-1283
▁their	-1284
nect	-1285
(1-	-1286
▁str	-1287
▁choose	-1288
75	-1289
▁label	-1290
▁edges	-1291
radius	-1292
▁start	-1293
45	-1294
\}	-1295
▁roots	-1296
▁cell	-1297
▁First	-1298
val	-1299
Longrightarrow	-1300
hat	-1301
))=	-1302
▁Lemma	-1303
]$	-1304
▁power	-1305
ys	-1306
)"	-1307
_2(	-1308
eth	-1309
▁lemma	-1310
$&	-1311
=90	-1312
▁linewidth	-1313
ud	-1314
▁0$.	-1315
▁subset	-1316
▁move	-1317
▁Similarly	-1318
}$."	-1319
Gamma	-1320
AI	-1321
32	-1322
}{3}	-1323
;2	-1324
yz	-1325
▁lie	-1326
▁Solution	-1327
▁inver	-1328
{1}{2	-1329
atic	-1330
bab	-1331
▁larg	-1332
_2}	-1333
out	-1334
und	-1335
▁incre	-1336
ABCD	-1337
imal	-1338
ator	-1339
▁im	-1340
▁column	-1341
De	-1342
▁produ	-1343
col	-1344
35	-1345
LOG	-1346
This	-1347
}\]	-1348
CB	-1349
▁express	-1350
▁suppose	-1351
▁$3$	-1352
▁arc	-1353
▁dis	-1354
▁could	-1355
1$	-1356
▁$2^	-1357
68	-1358
▁To	-1359
▁defin	-1360
▁inde	-1361
DC	-1362
_{1}	-1363
Delta	-1364
▁connect	-1365
▁rect	-1366
▁What	-1367
▁180	-1368
▁primes	-1369
ric	-1370
+1}$	-1371
ational	-1372
center	-1373
62	-1374
▁Sh	-1375
bserve	-1376
MO	-1377
▁times	-1378
-1}$	-1379
▁rel	-1380
.2	-1381
ulo	-1382
▁finish	-1383
)$$	-1384
▁bel	-1385
▁mean	-1386
=0}	-1387
▁100	-1388
3,	-1389
5}	-1390
18	-1391
eff	-1392
{3}	-1393
▁yields	-1394
lus	-1395
su	-1396
estion	-1397
ced	-1398
age	-1399
▁state	-1400
▁maximum	-1401
95	-1402
rib	-1403
▁very	-1404
92	-1405
sing	-1406
▁got	-1407
ample	-1408
6}	-1409
▁fixed	-1410
▁equality	-1411
ib	-1412
▁orth	-1413
▁digits	-1414
fect	-1415
7$	-1416
▁question	-1417
▁four	-1418
ating	-1419
▁factor	-1420
big	-1421
▁good	-1422
AH	-1423
▁smallest	-1424
ities	-1425
▁Assume	-1426
▁too	-1427
cale	-1428
▁0$,	-1429
▁doesn	-1430
▁probab	-1431
▁alt	-1432
▁reg	-1433
-1,	-1434
)=(	-1435
▁your	-1436
olving	-1437
celes	-1438
▁blue	-1439
):	-1440
▁Notice	-1441
AF	-1442
34	-1443
▁1.	-1444
▁multiple	-1445
9$	-1446
▁act	-1447
^2+1	-1448
97	-1449
▁common	-1450
efficient	-1451
▁perfect	-1452
▁plan	-1453
▁look	-1454
yp	-1455
tan	-1456
ility	-1457
BE	-1458
▁segment	-1459
▁dec	-1460
jective	-1461
▁degree	-1462
▁rectangle	-1463
ordin	-1464
▁symmet	-1465
▁therefore	-1466
For	-1467
^2(	-1468
▁ad	-1469
17	-1470
▁easily	-1471
els	-1472
▁coefficient	-1473
PC	-1474
_1\	-1475
$$$$	-1476
▁radius	-1477
4}	-1478
▁element	-1479
atu	-1480
ents	-1481
)^{	-1482
▁diagonal	-1483
lock	-1484
▁modulo	-1485
]"	-1486
ex	-1487
ceil	-1488
▁conf	-1489
▁write	-1490
(0.	-1491
MN	-1492
▁product	-1493
den	-1494
learly	-1495
▁concur	-1496
▁WLOG	-1497
▁another	-1498
)=0$	-1499
▁proper	-1500
gon	-1501
osceles	-1502
eo	-1503
▁solve	-1504
▁notice	-1505
$)	-1506
▁$0$	-1507
ort	-1508
▁/	-1509
▁divides	-1510
▁$0	-1511
-1}\	-1512
ray	-1513
ED	-1514
▁1\	-1515
▁being	-1516
▁fa	-1517
radical	-1518
▁divide	-1519
read	-1520
-1$.	-1521
3$	-1522
▁correct	-1523
▁original	-1524
88	-1525
▁enough	-1526
▁radical	-1527
▁black	-1528
ww	-1529
vial	-1530
▁greater	-1531
(1+	-1532
▁turn	-1533
let	-1534
idden	-1535
AA	-1536
▁natu	-1537
▁axis	-1538
▁CD	-1539
AX	-1540
▁satisfies	-1541
xf	-1542
...,	-1543
bit	-1544
If	-1545
lude	-1546
▁base	-1547
▁cent	-1548
_1}	-1549
▁ide	-1550
In	-1551
lick	-1552
40	-1553
▁reve	-1554
-(	-1555
▁diam	-1556
▁edge	-1557
▁isosceles	-1558
▁reveal	-1559
_1$,	-1560
▁moves	-1561
where	-1562
+(	-1563
▁example	-1564
\{	-1565
____	-1566
▁path	-1567
▁tra	-1568
7,	-1569
▁text	-1570
etermine	-1571
lug	-1572
ossible	-1573
'(	-1574
ks	-1575
▁hidden	-1576
2$	-1577
▁1:	-1578
▁ab	-1579
▁labels	-1580
▁multip	-1581
ln	-1582
8$	-1583
igh	-1584
ique	-1585
AO	-1586
▁hand	-1587
BP	-1588
▁distance	-1589
▁ma	-1590
▁step	-1591
}}\	-1592
hing	-1593
}}$	-1594
cup	-1595
igma	-1596
ident	-1597
sec	-1598
▁clear	-1599
▁sets	-1600
itu	-1601
^5	-1602
▁who	-1603
▁minimum	-1604
wide	-1605
30	-1606
▁perm	-1607
20	-1608
widehat	-1609
pri	-1610
▁impossible	-1611
2\	-1612
▁2.	-1613
▁=\	-1614
0,0	-1615
▁ass	-1616
ical	-1617
▁similarly	-1618
▁fe	-1619
37	-1620
▁define	-1621
the	-1622
\[	-1623
actor	-1624
▁finite	-1625
▁natural	-1626
ards	-1627
▁$(1	-1628
▁put	-1629
-1}{	-1630
.[/	-1631
Note	-1632
▁3$	-1633
iven	-1634
▁intersects	-1635
▁circumcenter	-1636
var	-1637
▁{\	-1638
'$.	-1639
▁hom	-1640
▁zero	-1641
itten	-1642
rm	-1643
▁rep	-1644
▁0,	-1645
▁plane	-1646
AQ	-1647
▁Ch	-1648
▁propert	-1649
94	-1650
}_{	-1651
=180	-1652
▁sp	-1653
resent	-1654
_2\	-1655
{1}{\	-1656
▁$(2	-1657
urther	-1658
asy	-1659
}}{	-1660
rid	-1661
PB	-1662
▁ext	-1663
}&	-1664
ions	-1665
color	-1666
▁wrong	-1667
}-	-1668
▁($	-1669
▁angles	-1670
▁those	-1671
cul	-1672
▁coordin	-1673
▁2:	-1674
medi	-1675
▁actually	-1676
▁arbit	-1677
;0$	-1678
lect	-1679
blems	-1680
▁construction	-1681
▁requ	-1682
^2$.	-1683
ess	-1684
▁Theorem	-1685
▁known	-1686
50	-1687
Now	-1688
form	-1689
circle	-1690
ee	-1691
▁give	-1692
posed	-1693
cm	-1694
efine	-1695
▁permut	-1696
ove	-1697
==	-1698
4$	-1699
^2-2	-1700
▁https	-1701
^{201	-1702
vert	-1703
+1)(	-1704
▁statement	-1705
38	-1706
+1,	-1707
▁contains	-1708
▁arbitra	-1709
▁taking	-1710
▁\)	-1711
▁ortho	-1712
}$"	-1713
▁hard	-1714
{{	-1715
▁rem	-1716
-1\	-1717
epsilon	-1718
secut	-1719
So	-1720
▁before	-1721
3]	-1722
ically	-1723
▁Clearly	-1724
ont	-1725
oot	-1726
▁Show	-1727
▁divid	-1728
comes	-1729
▁otherwise	-1730
▁rational	-1731
osite	-1732
ings	-1733
)\]	-1734
▁digit	-1735
ied	-1736
▁nice	-1737
stit	-1738
ati	-1739
▁consecut	-1740
_5	-1741
Omega	-1742
!!	-1743
▁3,	-1744
negative	-1745
}{(	-1746
alcul	-1747
'$,	-1748
problems	-1749
yclic	-1750
factor	-1751
▁size	-1752
▁rest	-1753
sigma	-1754
▁simple	-1755
deg	-1756
}^{	-1757
▁still	-1758
▁largest	-1759
▁trivial	-1760
+1}\	-1761
▁new	-1762
▁induct	-1763
▁complete	-1764
▁satisfying	-1765
16	-1766
▁BAC	-1767
▁-\	-1768
omin	-1769
ining	-1770
sl	-1771
77	-1772
▁BD	-1773
co	-1774
▁becomes	-1775
▁Be	-1776
ofproblems	-1777
ofproblemsolving	-1778
▁On	-1779
-5	-1780
▁diameter	-1781
+1\	-1782
▁You	-1783
▁written	-1784
▁construct	-1785
calefactor	-1786
-1)(	-1787
▁idea	-1788
▁paralle	-1789
▁consecutive	-1790
;=\	-1791
▁#	-1792
▁$2^{	-1793
▁used	-1794
ix	-1795
eople	-1796
▁conclude	-1797
▁$.	-1798
▁quadr	-1799
8,	-1800
▁concyclic	-1801
▁$4$	-1802
▁pick	-1803
▁infinitely	-1804
_1=	-1805
It	-1806
-1$,	-1807
atter	-1808
▁Fin	-1809
CE	-1810
▁people	-1811
inc	-1812
_3$	-1813
▁problems	-1814
▁200	-1815
▁why	-1816
{7	-1817
▁while	-1818
Le	-1819
prime	-1820
=0	-1821
)|	-1822
logram	-1823
[3]	-1824
PA	-1825
ross	-1826
▁arg	-1827
dis	-1828
42	-1829
▁equations	-1830
)=1$	-1831
▁202	-1832
)^2+	-1833
▁cu	-1834
_2$,	-1835
▁11	-1836
▁sw	-1837
+5	-1838
▁sufficient	-1839
▁were	-1840
+1$.	-1841
▁Ind	-1842
ens	-1843
▁connected	-1844
▁+\	-1845
▁incircle	-1846
▁conditions	-1847
ify	-1848
▁cong	-1849
BM	-1850
=2$	-1851
own	-1852
▁had	-1853
▁$100	-1854
ull	-1855
=5	-1856
▁cells	-1857
BI	-1858
ia	-1859
set	-1860
▁Re	-1861
▁rec	-1862
▁$201	-1863
▁off	-1864
Left	-1865
▁particular	-1866
▁NE	-1867
)}$	-1868
▁parallelogram	-1869
▁really	-1870
ula	-1871
▁mak	-1872
)+\	-1873
Since	-1874
GM	-1875
9,	-1876
EC	-1877
crib	-1878
_2,\	-1879
48	-1880
roup	-1881
▁passes	-1882
▁negative	-1883
▁rati	-1884
$;	-1885
▁congru	-1886
^2$,	-1887
▁general	-1888
▁functions	-1889
▁word	-1890
▁trans	-1891
othet	-1892
▁config	-1893
▁orthocenter	-1894
▁try	-1895
play	-1896
+1)^2	-1897
=1$.	-1898
wr	-1899
}.$	-1900
)^3	-1901
▁back	-1902
▁$(\	-1903
{9	-1904
OC	-1905
PD	-1906
leftrightarrow	-1907
▁probability	-1908
AK	-1909
{8	-1910
rent	-1911
▁direct	-1912
▁sa	-1913
70	-1914
▁unit	-1915
Leftrightarrow	-1916
ately	-1917
▁assum	-1918
▁adj	-1919
▁stud	-1920
AN	-1921
▁unique	-1922
▁Com	-1923
cy	-1924
vare	-1925
varepsilon	-1926
ether	-1927
ST	-1928
6\	-1929
_0$	-1930
▁obviously	-1931
oid	-1932
▁calcul	-1933
2,	-1934
▁interval	-1935
▁(3	-1936
▁contin	-1937
nmid	-1938
There	-1939
▁"$	-1940
resp	-1941
-1)$	-1942
▁Finally	-1943
▁without	-1944
dx	-1945
ird	-1946
▁expression	-1947
},\	-1948
BF	-1949
▁win	-1950
ire	-1951
~~	-1952
▁difference	-1953
▁increasing	-1954
cribed	-1955
▁hyp	-1956
▁argum	-1957
'\	-1958
_2+	-1959
}{5	-1960
▁opp	-1961
▁homothet	-1962
3\	-1963
▁occ	-1964
▁2$.	-1965
▁$1\	-1966
ences	-1967
▁found	-1968
0000	-1969
▁long	-1970
$).	-1971
limits	-1972
range	-1973
▁vari	-1974
(1,	-1975
slant	-1976
▁previous	-1977
▁)	-1978
▁stri	-1979
▁cycle	-1980
cases	-1981
▁divisors	-1982
4.	-1983
▁much	-1984
acent	-1985
=1$,	-1986
AT	-1987
▁solved	-1988
ern	-1989
▁decre	-1990
op	-1991
-1)^2	-1992
▁quadratic	-1993
▁0\	-1994
display	-1995
ready	-1996
linewidth	-1997
displaystyle	-1998
▁resid	-1999
itude	-2000
respond	-2001
ging	-2002
by	-2003
'=	-2004
-0.	-2005
cho	-2006
▁exce	-2007
_1,\	-2008
,3,	-2009
▁board	-2010
▁inversion	-2011
ob	-2012
omet	-2013
By	-2014
78	-2015
▁already	-2016
??	-2017
matrix	-2018
▁2$,	-2019
$$$	-2020
pace	-2021
96	-2022
▁ident	-2023
▁correspond	-2024
)+(	-2025
).$	-2026
lease	-2027
▁represent	-2028
pty	-2029
▁oper	-2030
▁configur	-2031
_2$.	-2032
▁indeed	-2033
ner	-2034
{6	-2035
ogonal	-2036
▁Using	-2037
▁segments	-2038
ning	-2039
ho	-2040
_1$.	-2041
^{2}+	-2042
▁formula	-2043
▁midpoints	-2044
DA	-2045
▁adjacent	-2046
^6	-2047
▁ent	-2048
ule	-2049
▁16	-2050
▁lead	-2051
9}	-2052
round	-2053
\}$.	-2054
),(	-2055
000	-2056
▁grid	-2057
{1,2	-2058
▁spe	-2059
varphi	-2060
▁box	-2061
▁factors	-2062
ap	-2063
ash	-2064
(2^	-2065
▁down	-2066
▁$2\	-2067
▁coefficients	-2068
tem	-2069
+1)$	-2070
orry	-2071
▁complex	-2072
▁fig	-2073
1\	-2074
▁white	-2075
▁seem	-2076
array	-2077
▁$6	-2078
▁group	-2079
▁somet	-2080
tead	-2081
▁been	-2082
{1}{2}\	-2083
enote	-2084
}{4}	-2085
7}	-2086
sib	-2087
▁15	-2088
36	-2089
▁AP	-2090
)\\	-2091
▁cons	-2092
▁sure	-2093
▁\,	-2094
▁property	-2095
ends	-2096
1}	-2097
app	-2098
thing	-2099
▁inv	-2100
▁AI	-2101
▁inside	-2102
▁opposite	-2103
xyz	-2104
▁EF	-2105
▁foot	-2106
▁triple	-2107
ii	-2108
trac	-2109
▁Click	-2110
vex	-2111
▁next	-2112
CP	-2113
▁Because	-2114
ption	-2115
}_	-2116
))$	-2117
▁ratio	-2118
|$	-2119
▁[/	-2120
atively	-2121
▁$7	-2122
▁necess	-2123
lugging	-2124
▁happ	-2125
ilateral	-2126
▁isn	-2127
▁argument	-2128
more	-2129
▁reach	-2130
most	-2131
.)	-2132
▁cut	-2133
▁asser	-2134
▁appro	-2135
mb	-2136
▁Is	-2137
▁PQ	-2138
since	-2139
/3	-2140
(0,	-2141
agon	-2142
led	-2143
vent	-2144
Proposed	-2145
▁That	-2146
▁subsets	-2147
Thus	-2148
▁Point	-2149
1.	-2150
=0}^{	-2151
(2)	-2152
(0)=	-2153
▁Here	-2154
▁didn	-2155
6.	-2156
22	-2157
4\	-2158
▁$-	-2159
^2,	-2160
=2\	-2161
subset	-2162
▁convex	-2163
▁something	-2164
▁simply	-2165
An	-2166
CF	-2167
pez	-2168
DB	-2169
+2\	-2170
▁Take	-2171
▁place	-2172
▁proved	-2173
eed	-2174
ian	-2175
+1}{	-2176
|=	-2177
▁*/	-2178
til	-2179
▁big	-2180
▁divisor	-2181
▁call	-2182
▁/*	-2183
▁block	-2184
▁equilateral	-2185
▁$8	-2186
▁appear	-2187
▁remaining	-2188
^{-1}	-2189
▁whose	-2190
▁fill	-2191
▁When	-2192
▁und	-2193
}{2}$.	-2194
esis	-2195
iod	-2196
▁assertion	-2197
{10	-2198
▁Define	-2199
sel	-2200
5.	-2201
+1$,	-2202
▁Further	-2203
ension	-2204
zero	-2205
ially	-2206
▁cover	-2207
▁observe	-2208
▁touch	-2209
▁chasing	-2210
▁occur	-2211
ored	-2212
▁strict	-2213
▁trapez	-2214
▁repe	-2215
alf	-2216
▁$,	-2217
}}{\	-2218
▁player	-2219
▁:)	-2220
▁\(\	-2221
DF	-2222
mn	-2223
;0	-2224
▁$5$	-2225
}.	-2226
▁linear	-2227
▁position	-2228
▁congruent	-2229
▁sc	-2230
_{0}	-2231
▁defined	-2232
▁AE	-2233
▁smaller	-2234
▁mon	-2235
▁Can	-2236
▁top	-2237
}\\	-2238
lse	-2239
▁13	-2240
,\]	-2241
▁his	-2242
delta	-2243
▁2)	-2244
ade	-2245
▁small	-2246
▁pers	-2247
tty	-2248
▁dotstyle	-2249
▁instead	-2250
sto	-2251
AS	-2252
▁AF	-2253
55	-2254
▁hypoth	-2255
▁arbitrary	-2256
less	-2257
BX	-2258
ops	-2259
▁homothety	-2260
▁once	-2261
▁rows	-2262
▁mis	-2263
-2\	-2264
▁$1$.	-2265
▁90^{\	-2266
map	-2267
▁below	-2268
ey	-2269
})$	-2270
▁redu	-2271
^1	-2272
eq	-2273
▁2(	-2274
▁pen	-2275
mapsto	-2276
-1)\	-2277
sh	-2278
▁incenter	-2279
atch	-2280
47	-2281
▁$9	-2282
▁sur	-2283
aw	-2284
ason	-2285
▁3\	-2286
{2}{	-2287
MC	-2288
▁shows	-2289
▁ve	-2290
Su	-2291
▁4$	-2292
8}	-2293
▁polygon	-2294
under	-2295
▁ant	-2296
_3,	-2297
▁possib	-2298
▁bash	-2299
▁period	-2300
▁around	-2301
{1}{1	-2302
▁never	-2303
▁until	-2304
▁colors	-2305
▁repla	-2306
...+	-2307
Find	-2308
ug	-2309
▁hypothesis	-2310
lud	-2311
▁lengths	-2312
cycle	-2313
▁gues	-2314
$'	-2315
li	-2316
3.	-2317
Con	-2318
.$"	-2319
stack	-2320
lusion	-2321
▁third	-2322
mathrm	-2323
ils	-2324
pq	-2325
▁diagonals	-2326
▁coordinates	-2327
▁game	-2328
)^2$	-2329
!"	-2330
19	-2331
▁test	-2332
▁ach	-2333
BH	-2334
osen	-2335
▁dir	-2336
▁iff	-2337
^4+	-2338
Here	-2339
▁disc	-2340
par	-2341
▁combin	-2342
-2)	-2343
▁After	-2344
itive	-2345
rection	-2346
;1$	-2347
att	-2348
▁configuration	-2349
)^2\	-2350
-1.	-2351
▁$1$,	-2352
7.	-2353
}^	-2354
As	-2355
DI	-2356
▁half	-2357
KL	-2358
▁sign	-2359
lceil	-2360
rceil	-2361
know	-2362
ha	-2363
bra	-2364
▁unders	-2365
+1)=	-2366
▁achie	-2367
tand	-2368
ists	-2369
▁bounded	-2370
▁\;	-2371
ought	-2372
▁project	-2373
▁substit	-2374
ea	-2375
^{2^	-2376
race	-2377
▁abs	-2378
▁init	-2379
:[/	-2380
▁$$(	-2381
:"	-2382
{1,	-2383
▁symmetry	-2384
▁along	-2385
▁change	-2386
▁takes	-2387
+6	-2388
▁ACB	-2389
ext	-2390
▁strictly	-2391
ts	-2392
▁implying	-2393
▁simpl	-2394
▁polynomials	-2395
▁bc	-2396
ift	-2397
▁containing	-2398
▁chosen	-2399
▁Observe	-2400
▁http	-2401
▁similarity	-2402
▁LHS	-2403
-2$	-2404
way	-2405
known	-2406
82	-2407
▁thing	-2408
▁20	-2409
▁Indeed	-2410
AY	-2411
▁Given	-2412
CM	-2413
▁4,	-2414
eomet	-2415
au	-2416
go	-2417
▁Determine	-2418
ren	-2419
qq	-2420
43	-2421
▁(1)	-2422
▁process	-2423
=0$,	-2424
BQ	-2425
▁bad	-2426
▁trapezoid	-2427
ott	-2428
ME	-2429
▁made	-2430
▁reason	-2431
▁symmetric	-2432
▁read	-2433
▁relatively	-2434
▁nonnegative	-2435
BB	-2436
▁bisects	-2437
;&	-2438
uting	-2439
▁bit	-2440
''	-2441
▁concurrent	-2442
ized	-2443
▁goes	-2444
▁direction	-2445
▁mark	-2446
ystem	-2447
▁makes	-2448
▁0.	-2449
ump	-2450
{2\	-2451
,$$	-2452
gor	-2453
▁diagram	-2454
ior	-2455
-1)^	-2456
▁under	-2457
▁Than	-2458
▁pretty	-2459
▁going	-2460
=-	-2461
nal	-2462
).$$	-2463
8.	-2464
▁guess	-2465
+1)\	-2466
)}{\	-2467
▁apply	-2468
(10	-2469
gebra	-2470
overrightarrow	-2471
▁fri	-2472
▁3.	-2473
otiv	-2474
owers	-2475
▁else	-2476
_0,	-2477
▁system	-2478
ual	-2479
emark	-2480
OP	-2481
▁acute	-2482
oes	-2483
[\	-2484
rel	-2485
▁dx	-2486
▁partition	-2487
▁$10	-2488
raction	-2489
_1}{	-2490
ously	-2491
▁ind	-2492
www	-2493
▁altitude	-2494
49	-2495
▁;	-2496
▁isogonal	-2497
dir	-2498
▁thought	-2499
▁someone	-2500
▁proving	-2501
▁continu	-2502
▁coins	-2503
-1)=	-2504
▁Denote	-2505
▁ones	-2506
▁understand	-2507
▁vect	-2508
▁shown	-2509
▁permutation	-2510
▁25	-2511
▁sufficiently	-2512
_1)	-2513
,2,	-2514
utes	-2515
self	-2516
▁among	-2517
olar	-2518
▁los	-2519
▁par	-2520
▁tangents	-2521
▁90^\	-2522
▁figure	-2523
▁reals	-2524
▁Other	-2525
▁powers	-2526
-1}+	-2527
brace	-2528
▁ca	-2529
▁due	-2530
▁AQ	-2531
{201	-2532
▁person	-2533
▁{1	-2534
▁contest	-2535
),$	-2536
mpty	-2537
),\	-2538
yf	-2539
▁year	-2540
_1-	-2541
▁having	-2542
^2}\	-2543
▁-2	-2544
▁final	-2545
▁spec	-2546
▁please	-2547
+2)	-2548
aking	-2549
05	-2550
con	-2551
▁Furthermore	-2552
ullet	-2553
vec	-2554
▁xy	-2555
▁seems	-2556
▁event	-2557
▁minimal	-2558
▁compute	-2559
choose	-2560
^2+\	-2561
▁image	-2562
(5	-2563
above	-2564
{1}{4	-2565
raight	-2566
▁definition	-2567
Then	-2568
▁she	-2569
ethod	-2570
ateg	-2571
_{201	-2572
MB	-2573
▁centered	-2574
=0$.	-2575
▁students	-2576
+1}-	-2577
ighb	-2578
▁tell	-2579
▁3$.	-2580
▁variable	-2581
^{3	-2582
ceed	-2583
▁DE	-2584
▁inductive	-2585
ined	-2586
bar	-2587
=2^	-2588
▁RHS	-2589
▁fraction	-2590
▁rot	-2591
▁giving	-2592
]$.	-2593
▁wrt	-2594
}{2}}	-2595
▁passing	-2596
}}=\	-2597
▁quite	-2598
▁conclusion	-2599
▁gu	-2600
________	-2601
▁meaning	-2602
)=1$.	-2603
FE	-2604
ype	-2605
{1}{3	-2606
▁$=	-2607
andom	-2608
▁conver	-2609
na	-2610
Hence	-2611
ode	-2612
▁great	-2613
/4	-2614
▁valid	-2615
........	-2616
▁geomet	-2617
ci	-2618
{-	-2619
▁Any	-2620
▁chang	-2621
▁starting	-2622
▁Otherwise	-2623
$:	-2624
)+2	-2625
wor	-2626
▁acc	-2627
MD	-2628
lym	-2629
▁ho	-2630
▁meets	-2631
▁said	-2632
-1)^{	-2633
bullet	-2634
▁immedi	-2635
87	-2636
ward	-2637
▁neighb	-2638
^2-1	-2639
▁remains	-2640
▁approach	-2641
▁More	-2642
▁main	-2643
▁subtrac	-2644
inder	-2645
^{202	-2646
▁lea	-2647
▁math	-2648
▁required	-2649
MP	-2650
▁Each	-2651
,\,	-2652
▁:(	-2653
▁none	-2654
$$$\	-2655
)!	-2656
▁except	-2657
▁expla	-2658
▁larger	-2659
▁denomin	-2660
(1+\	-2661
▁tog	-2662
piral	-2663
▁wins	-2664
▁dividing	-2665
▁injective	-2666
▁method	-2667
▁cre	-2668
▁bi	-2669
▁straight	-2670
Claim	-2671
=3$	-2672
▁weight	-2673
▁AX	-2674
▁XY	-2675
metic	-2676
zx	-2677
Consider	-2678
▁cour	-2679
▁Remark	-2680
▁?	-2681
_2=	-2682
^2)=	-2683
stackrel	-2684
First	-2685
9.	-2686
2^	-2687
▁3$,	-2688
93	-2689
cing	-2690
ency	-2691
▁Math	-2692
▁across	-2693
▁select	-2694
ithmetic	-2695
▁anal	-2696
iew	-2697
▁polar	-2698
▁Sub	-2699
armon	-2700
▁sequences	-2701
}.$$	-2702
▁eventually	-2703
84	-2704
=6	-2705
▁maximal	-2706
▁though	-2707
▁random	-2708
CQ	-2709
▁bisectors	-2710
▁recur	-2711
▁choos	-2712
hline	-2713
▁bott	-2714
▁${	-2715
^{-	-2716
ization	-2717
▁course	-2718
ket	-2719
)*	-2720
=1,	-2721
+1}=	-2722
▁$202	-2723
osed	-2724
▁At	-2725
CI	-2726
▁columns	-2727
▁onto	-2728
▁30	-2729
▁fix	-2730
▁corresponding	-2731
rees	-2732
-$	-2733
▁bal	-2734
▁begin	-2735
▁spiral	-2736
OA	-2737
mathbf	-2738
▁BE	-2739
blue	-2740
▁exter	-2741
armonic	-2742
+1=	-2743
ese	-2744
▁words	-2745
▁class	-2746
^{100	-2747
▁team	-2748
▁cards	-2749
)^{2}	-2750
2.	-2751
viously	-2752
)=0	-2753
stru	-2754
▁loc	-2755
||	-2756
▁14	-2757
-2.	-2758
Prove	-2759
side	-2760
▁steps	-2761
TS	-2762
AR	-2763
▁determ	-2764
▁colored	-2765
▁imply	-2766
lympi	-2767
icial	-2768
_1&	-2769
AL	-2770
▁$6$	-2771
ittle	-2772
^2+3	-2773
with	-2774
▁divided	-2775
▁anyone	-2776
_\	-2777
lice	-2778
▁arithmetic	-2779
(2^{	-2780
lympiad	-2781
51	-2782
ming	-2783
-1}$.	-2784
{1}{3}	-2785
▁table	-2786
201	-2787
▁IMO	-2788
▁hel	-2789
▁inscribed	-2790
▁2}	-2791
▁{2	-2792
▁allow	-2793
▁adding	-2794
jug	-2795
).\]	-2796
onent	-2797
▁With	-2798
▁strateg	-2799
▁:)"	-2800
▁der	-2801
DP	-2802
▁residue	-2803
▁All	-2804
8\	-2805
ithm	-2806
ev	-2807
▁mist	-2808
=90^{\	-2809
)--(1	-2810
=90^\	-2811
^3-	-2812
▁formed	-2813
^{3}	-2814
Wh	-2815
median	-2816
AG	-2817
_2+\	-2818
▁proceed	-2819
▁sums	-2820
▁5,	-2821
▁Ste	-2822
▁nonzero	-2823
▁assumption	-2824
▁AO	-2825
▁bottom	-2826
png	-2827
Suppose	-2828
lit	-2829
iles	-2830
▁pie	-2831
+7	-2832
▁range	-2833
▁twice	-2834
▁equals	-2835
MA	-2836
Big	-2837
$$$$\	-2838
edu	-2839
▁Call	-2840
▁harmonic	-2841
+2$	-2842
▁colour	-2843
}{2}$,	-2844
63	-2845
name	-2846
▁regular	-2847
▁$2$,	-2848
====	-2849
)$."	-2850
▁$0\	-2851
((1	-2852
ron	-2853
5\	-2854
▁together	-2855
uchy	-2856
▁(2)	-2857
df	-2858
▁Set	-2859
▁belong	-2860
▁medi	-2861
▁(4	-2862
/2}	-2863
RT	-2864
▁high	-2865
▁motiv	-2866
_6	-2867
▁3^	-2868
Given	-2869
▁strategy	-2870
XC	-2871
QC	-2872
▁obser	-2873
▁conjug	-2874
▁60	-2875
▁minim	-2876
My	-2877
▁18	-2878
)=-	-2879
\),	-2880
▁posted	-2881
underbrace	-2882
bviously	-2883
xz	-2884
▁Add	-2885
PE	-2886
▁match	-2887
▁er	-2888
▁ra	-2889
work	-2890
tau	-2891
▁ask	-2892
▁arrange	-2893
_1(	-2894
▁My	-2895
▁parity	-2896
wo	-2897
FD	-2898
(1-\	-2899
,2,\	-2900
)."	-2901
arily	-2902
▁chord	-2903
▁denot	-2904
=\{	-2905
cong	-2906
:\	-2907
cent	-2908
▁CA	-2909
▁explain	-2910
9\	-2911
▁bin	-2912
CH	-2913
▁permutations	-2914
pper	-2915
esting	-2916
PM	-2917
▁$2$.	-2918
▁remo	-2919
▁Bob	-2920
+1}$.	-2921
$?	-2922
2^{	-2923
▁cos	-2924
▁Ca	-2925
;0$.	-2926
▁initial	-2927
▁operation	-2928
Therefore	-2929
-6	-2930
▁...,	-2931
▁MN	-2932
+|	-2933
mber	-2934
BK	-2935
_1+\	-2936
{1-	-2937
▁No	-2938
RS	-2939
draw	-2940
▁finishes	-2941
geqslant	-2942
}}+\	-2943
ars	-2944
**	-2945
1$.	-2946
ny	-2947
7\	-2948
,1)$	-2949
But	-2950
▁Next	-2951
overset	-2952
89	-2953
▁everything	-2954
there	-2955
▁Alice	-2956
}{1+	-2957
▁Moreover	-2958
,-	-2959
▁ir	-2960
▁empty	-2961
umer	-2962
}{3}\	-2963
orm	-2964
▁comput	-2965
)/	-2966
▁cube	-2967
DM	-2968
roups	-2969
+1-	-2970
}^{2}	-2971
▁sing	-2972
▁matrix	-2973
▁pr	-2974
▁(0,	-2975
▁key	-2976
▁might	-2977
▁probably	-2978
^3$	-2979
▁St	-2980
CC	-2981
▁hex	-2982
!$	-2983
pic	-2984
▁height	-2985
▁One	-2986
▁lot	-2987
▁choice	-2988
olved	-2989
{|	-2990
^2+4	-2991
rily	-2992
▁dou	-2993
QP	-2994
▁Just	-2995
▁card	-2996
_4$	-2997
OM	-2998
▁ser	-2999
▁strong	-3000
CX	-3001
imeter	-3002
▁expect	-3003
31	-3004
▁addition	-3005
(1)=	-3006
▁lim	-3007
gorithm	-3008
ory	-3009
FC	-3010
27	-3011
uc	-3012
▁turns	-3013
69	-3014
because	-3015
▁prog	-3016
)^2=	-3017
;0$,	-3018
oper	-3019
(1)$	-3020
▁immediately	-3021
▁AH	-3022
▁minutes	-3023
mun	-3024
ording	-3025
'}	-3026
nx	-3027
▁cur	-3028
▁coordinate	-3029
leqslant	-3030
rang	-3031
▁few	-3032
ij	-3033
▁chase	-3034
▁4\	-3035
$,$	-3036
hed	-3037
+1)}	-3038
▁altern	-3039
ention	-3040
$),	-3041
▁rewr	-3042
▁maxim	-3043
\).	-3044
)}{(	-3045
▁gets	-3046
pen	-3047
▁fal	-3048
28	-3049
▁17	-3050
▁\),	-3051
▁App	-3052
▁link	-3053
^2-4	-3054
▁hexagon	-3055
XA	-3056
EA	-3057
box	-3058
▁identity	-3059
ted	-3060
},$	-3061
24	-3062
▁Ex	-3063
iting	-3064
}|	-3065
]$,	-3066
▁180^{\	-3067
-1}{2}	-3068
▁}\	-3069
▁$10$	-3070
)^2}	-3071
▁necessarily	-3072
wn	-3073
▁1/	-3074
minus	-3075
▁little	-3076
_2)	-3077
▁$1,	-3078
alled	-3079
▁results	-3080
-1}(	-3081
hs	-3082
▁interior	-3083
▁stand	-3084
alities	-3085
100	-3086
operator	-3087
}{6	-3088
\}$,	-3089
this	-3090
operatorname	-3091
▁called	-3092
uck	-3093
lockwise	-3094
star	-3095
icult	-3096
eep	-3097
▁help	-3098
▁seen	-3099
▁amount	-3100
hi	-3101
IC	-3102
▁hor	-3103
_{3	-3104
part	-3105
▁para	-3106
3$.	-3107
(201	-3108
▁applying	-3109
▁AN	-3110
wards	-3111
)^2+(	-3112
my	-3113
_1^2	-3114
EB	-3115
],	-3116
php	-3117
board	-3118
iquel	-3119
joint	-3120
-3.	-3121
_{4	-3122
▁1)$	-3123
+8	-3124
ild	-3125
setminus	-3126
▁log	-3127
▁^	-3128
..."	-3129
^{(	-3130
▁Cauchy	-3131
▁groups	-3132
▁split	-3133
XB	-3134
OO	-3135
)-\	-3136
▁considering	-3137
[3]{	-3138
▁+1	-3139
▁tangency	-3140
▁choices	-3141
ilities	-3142
▁chain	-3143
DEF	-3144
▁3:	-3145
▁doing	-3146
2$.	-3147
+1}+	-3148
▁5$	-3149
▁region	-3150
arn	-3151
ketch	-3152
▁itself	-3153
▁Problem	-3154
ivity	-3155
radiction	-3156
▁determine	-3157
uring	-3158
74	-3159
yth	-3160
▁denominator	-3161
▁Thanks	-3162
▁proves	-3163
mm	-3164
▁lower	-3165
^2)(	-3166
▁remainder	-3167
▁transform	-3168
^{2^{	-3169
)^2}{	-3170
▁dedu	-3171
)}=\	-3172
04	-3173
▁--	-3174
+1}}	-3175
=2$,	-3176
▁sin	-3177
Click	-3178
▁easier	-3179
▁proven	-3180
subseteq	-3181
'=\	-3182
▁difficult	-3183
▁official	-3184
23	-3185
cx	-3186
+10	-3187
ads	-3188
▁short	-3189
▁corner	-3190
ematic	-3191
munity	-3192
uler	-3193
6),	-3194
ently	-3195
024	-3196
▁matter	-3197
)(2	-3198
_2-	-3199
)/2	-3200
▁Which	-3201
▁string	-3202
▁multiplic	-3203
(2,	-3204
▁centers	-3205
he	-3206
▁{1}{	-3207
-1}}	-3208
uit	-3209
▁greatest	-3210
BO	-3211
aybe	-3212
▁cross	-3213
}{2}=\	-3214
ict	-3215
light	-3216
▁drawn	-3217
▁aver	-3218
▁entire	-3219
^2}+\	-3220
▁relation	-3221
sym	-3222
999	-3223
gre	-3224
▁list	-3225
▁hour	-3226
▁occurs	-3227
▁rectangles	-3228
▁five	-3229
dig	-3230
▁coprime	-3231
=9	-3232
+9	-3233
XD	-3234
)-(	-3235
view	-3236
▁est	-3237
▁domin	-3238
dle	-3239
▁ends	-3240
,\,\	-3241
▁Why	-3242
TE	-3243
swers	-3244
aring	-3245
▁solving	-3246
}{8	-3247
▁obtained	-3248
▁24	-3249
+1}+\	-3250
▁observ	-3251
^2)$	-3252
|=|	-3253
▁disjoint	-3254
▁BP	-3255
{3}{2}	-3256
izont	-3257
+3}	-3258
^2}$	-3259
0}$	-3260
▁1}$	-3261
▁kind	-3262
pmatrix	-3263
39	-3264
ants	-3265
How	-3266
▁decreasing	-3267
▁inequalities	-3268
▁multiply	-3269
▁intersections	-3270
ending	-3271
▁et	-3272
no	-3273
▁type	-3274
▁outside	-3275
▁pairwise	-3276
▁coin	-3277
▁sake	-3278
community	-3279
lish	-3280
CN	-3281
arc	-3282
▁Plugging	-3283
$$\	-3284
▁algorithm	-3285
}{=	-3286
▁'	-3287
▁upper	-3288
}{2^	-3289
▁Taking	-3290
▁looking	-3291
▁Obviously	-3292
▁parts	-3293
▁directly	-3294
▁false	-3295
▁better	-3296
▁45	-3297
but	-3298
▁abc	-3299
}[	-3300
)+1	-3301
▁needed	-3302
ily	-3303
di	-3304
ka	-3305
▁19	-3306
=7	-3307
▁$3\	-3308
^3}{	-3309
▁cha	-3310
}.\]	-3311
)=1$,	-3312
▁share	-3313
▁~	-3314
uple	-3315
▁green	-3316
^7	-3317
▁feet	-3318
\,	-3319
pping	-3320
61	-3321
ran	-3322
▁showing	-3323
bmod	-3324
,1.	-3325
urd	-3326
,0)$	-3327
▁remove	-3328
▁answers	-3329
Re	-3330
▁arbitrarily	-3331
▁cub	-3332
▁$(1,	-3333
▁wish	-3334
ertain	-3335
▁replace	-3336
▁nine	-3337
▁numer	-3338
bx	-3339
▁depend	-3340
ON	-3341
▁integral	-3342
08	-3343
lcm	-3344
valu	-3345
(2\	-3346
)}(	-3347
ful	-3348
▁\[(	-3349
udes	-3350
-1)!	-3351
ythag	-3352
▁continuous	-3353
then	-3354
1{	-3355
=1}^{\	-3356
}{7	-3357
cot	-3358
{1+	-3359
digit	-3360
▁typ	-3361
▁players	-3362
bigg	-3363
3$,	-3364
^2&	-3365
ID	-3366
kx	-3367
90^{\	-3368
▁residues	-3369
itudes	-3370
how	-3371
\[\	-3372
^3\	-3373
▁AK	-3374
▁basically	-3375
{2^	-3376
_1=\	-3377
.\	-3378
▁happen	-3379
▁horizont	-3380
+1}$,	-3381
FG	-3382
ific	-3383
▁etc	-3384
▁These	-3385
BY	-3386
▁Cont	-3387
▁reflections	-3388
))+	-3389
itch	-3390
▁six	-3391
OB	-3392
ats	-3393
av	-3394
▁perimeter	-3395
▁average	-3396
ries	-3397
▁Qu	-3398
▁$0$.	-3399
^2+(	-3400
▁assign	-3401
ultip	-3402
▁180^\	-3403
▁progress	-3404
007	-3405
▁appears	-3406
▁possibilities	-3407
▁$(0,	-3408
,1,1	-3409
{11	-3410
-3}	-3411
▁mistake	-3412
|+|	-3413
roid	-3414
▁round	-3415
1$,	-3416
+1},	-3417
▁day	-3418
:$	-3419
▁score	-3420
▁casework	-3421
MK	-3422
{16	-3423
▁perform	-3424
▁further	-3425
▁Equ	-3426
▁rear	-3427
▁whole	-3428
▁trying	-3429
FB	-3430
cise	-3431
thers	-3432
0.5	-3433
}(\	-3434
}=1	-3435
}-1	-3436
_2&	-3437
vdots	-3438
▁limit	-3439
▁verify	-3440
PR	-3441
▁4.	-3442
PX	-3443
▁4$.	-3444
▁come	-3445
▁full	-3446
▁latter	-3447
▁4$,	-3448
▁mention	-3449
1111	-3450
From	-3451
af	-3452
▁triples	-3453
^2}{2	-3454
_{3}	-3455
▁certain	-3456
▁others	-3457
▁$7$	-3458
hedron	-3459
▁plugging	-3460
mu	-3461
▁$"	-3462
geon	-3463
^{4	-3464
▁properties	-3465
imension	-3466
sed	-3467
▁friends	-3468
pr	-3469
;1$.	-3470
▁$&	-3471
{25	-3472
▁single	-3473
))\	-3474
▁$8$	-3475
luding	-3476
▁middle	-3477
BAC	-3478
▁finally	-3479
FA	-3480
ger	-3481
Case	-3482
▁double	-3483
3^	-3484
▁att	-3485
▁{{	-3486
pped	-3487
▁necessary	-3488
▁maps	-3489
▁took	-3490
▁1)(	-3491
ones	-3492
{12	-3493
▁wal	-3494
▁forg	-3495
▁import	-3496
▁periodic	-3497
ances	-3498
ait	-3499
ody	-3500
▁$9$	-3501
▁ABD	-3502
ene	-3503
▁cycles	-3504
vmatrix	-3505
=2$.	-3506
)^{\	-3507
{1}{2}$	-3508
(0)$	-3509
▁deduce	-3510
00$	-3511
▁$3$,	-3512
points	-3513
CY	-3514
cdn	-3515
ified	-3516
▁placed	-3517
009	-3518
▁leads	-3519
)=0$.	-3520
,2.	-3521
]\	-3522
QR	-3523
=-\	-3524
vel	-3525
_2}{	-3526
▁gcd	-3527
ipode	-3528
)(\	-3529
ascal	-3530
^*$	-3531
▁balls	-3532
▁happens	-3533
ather	-3534
-1},	-3535
▁directed	-3536
}^+	-3537
▁$0&	-3538
ery	-3539
dotstyle	-3540
▁3)	-3541
good	-3542
▁(-	-3543
=2^{	-3544
▁Constru	-3545
▁whether	-3546
▁TST	-3547
▁altitudes	-3548
BT	-3549
].	-3550
▁\).	-3551
topic	-3552
Math	-3553
▁contradicts	-3554
▁taken	-3555
]=	-3556
'}{	-3557
▁independ	-3558
▁variables	-3559
,4	-3560
▁multiples	-3561
Notice	-3562
▁able	-3563
van	-3564
YZ	-3565
▁index	-3566
▁median	-3567
3),	-3568
igeon	-3569
▁denotes	-3570
pre	-3571
{(2	-3572
▁name	-3573
▁Al	-3574
▁coinc	-3575
\}\	-3576
▁centroid	-3577
^+	-3578
come	-3579
det	-3580
▁scale	-3581
▁algebra	-3582
=0,	-3583
▁See	-3584
/2$	-3585
▁$0$,	-3586
2$,	-3587
order	-3588
6)	-3589
▁AT	-3590
▁complet	-3591
{2}{3}	-3592
viewtopic	-3593
_7	-3594
((2	-3595
▁dele	-3596
▁50	-3597
$$"	-3598
▁representation	-3599
xmin	-3600
▁blocks	-3601
81	-3602
_{202	-3603
▁CE	-3604
olve	-3605
▁series	-3606
HC	-3607
▁finitely	-3608
▁101	-3609
▁keep	-3610
▁tree	-3611
▁ordered	-3612
▁Step	-3613
▁external	-3614
bmatrix	-3615
hole	-3616
olute	-3617
hspace	-3618
▁making	-3619
▁$$2	-3620
▁binary	-3621
▁Miquel	-3622
▁degrees	-3623
▁winning	-3624
AEF	-3625
NM	-3626
{(\	-3627
;(	-3628
▁DC	-3629
▁won	-3630
▁$3$.	-3631
▁boxes	-3632
}{1-	-3633
$(	-3634
}{2\	-3635
▁99	-3636
ites	-3637
zeta	-3638
PS	-3639
})=	-3640
)}$.	-3641
▁expressed	-3642
OD	-3643
▁infinity	-3644
GH	-3645
uff	-3646
-2,	-3647
xmax	-3648
07	-3649
▁law	-3650
ante	-3651
▁absurd	-3652
=180^{\	-3653
}{5}	-3654
▁PC	-3655
;1$,	-3656
▁later	-3657
▁quick	-3658
eb	-3659
{5}	-3660
-1}$,	-3661
mp	-3662
\{\	-3663
▁Put	-3664
▁rule	-3665
▁setting	-3666
▁$(3	-3667
▁however	-3668
DX	-3669
uth	-3670
EM	-3671
|&	-3672
_0^1	-3673
}{2}+\	-3674
men	-3675
verse	-3676
6$.	-3677
▁\}$	-3678
▁plug	-3679
stant	-3680
_3+	-3681
8)	-3682
▁prov	-3683
_0+	-3684
ieve	-3685
long	-3686
▁her	-3687
exists	-3688
▁things	-3689
▁getting	-3690
XYZ	-3691
_3(	-3692
▁1-	-3693
▁transl	-3694
▁touches	-3695
09	-3696
_{1},	-3697
▁||	-3698
▁Substit	-3699
|$.	-3700
4$.	-3701
}{3}$	-3702
▁within	-3703
_{100	-3704
{1}{4}	-3705
DIT	-3706
▁calculate	-3707
Lemma	-3708
II	-3709
'$&	-3710
onents	-3711
▁FE	-3712
▁bu	-3713
▁interesting	-3714
(0.4	-3715
▁arcs	-3716
eah	-3717
]{	-3718
▁loss	-3719
{1,2,\	-3720
BN	-3721
▁(1,	-3722
▁positions	-3723
▁ri	-3724
▁analog	-3725
DQ	-3726
▁ADC	-3727
▁run	-3728
▁vector	-3729
})\	-3730
▁yet	-3731
omb	-3732
▁AA	-3733
Phi	-3734
gb	-3735
▁far	-3736
▁units	-3737
az	-3738
▁deta	-3739
Forum	-3740
21	-3741
▁completely	-3742
=8	-3743
▁trick	-3744
;\;	-3745
▁Comp	-3746
▁require	-3747
90^\	-3748
▁2^{2	-3749
▁absolute	-3750
solution	-3751
Assume	-3752
ters	-3753
▁anything	-3754
▁vectors	-3755
KM	-3756
attach	-3757
▁sends	-3758
▁Sorry	-3759
▁centre	-3760
▁leading	-3761
▁expected	-3762
▁paper	-3763
▁40	-3764
TSOC	-3765
ense	-3766
▁fam	-3767
BL	-3768
umber	-3769
_2,...,	-3770
nh	-3771
▁horizontal	-3772
▁guar	-3773
▁comes	-3774
Pow	-3775
▁indices	-3776
▁BA	-3777
▁contra	-3778
▁deriv	-3779
▁expand	-3780
▁Combin	-3781
}2	-3782
.,	-3783
▁199	-3784
▁projection	-3785
nk	-3786
IA	-3787
4),	-3788
7)	-3789
▁guarante	-3790
▁tried	-3791
▁increase	-3792
▁surjective	-3793
KC	-3794
▁away	-3795
▁marked	-3796
And	-3797
6666	-3798
▁pict	-3799
▁says	-3800
▁satisfied	-3801
_{(	-3802
▁space	-3803
▁filldraw	-3804
ov	-3805
▁Do	-3806
+1)-	-3807
cept	-3808
▁1}{	-3809
▁conjugate	-3810
5$.	-3811
▁areas	-3812
▁(*	-3813
▁paths	-3814
▁US	-3815
ages	-3816
lied	-3817
▁sem	-3818
}{4}$	-3819
▁$12	-3820
▁Answer	-3821
attachments	-3822
▁cuts	-3823
aps	-3824
}}$.	-3825
▁changes	-3826
_2)$	-3827
▁forces	-3828
▁xf	-3829
_1)$	-3830
▁completes	-3831
▁vertical	-3832
ox	-3833
▁sph	-3834
▁special	-3835
▁stones	-3836
▁clos	-3837
-1)+	-3838
=4$	-3839
+1}{2}	-3840
▁during	-3841
▁consist	-3842
utif	-3843
▁attain	-3844
igeonhole	-3845
▁achieved	-3846
si	-3847
▁believe	-3848
020	-3849
therefore	-3850
MX	-3851
▁6,	-3852
)^2$.	-3853
▁extension	-3854
(3)	-3855
▁sorry	-3856
52	-3857
iter	-3858
▁DEF	-3859
▁extend	-3860
▁letting	-3861
▁numerator	-3862
entially	-3863
▁consists	-3864
ert	-3865
green	-3866
▁book	-3867
member	-3868
▁Part	-3869
▁shift	-3870
{100	-3871
}_{\	-3872
▁$-1	-3873
HE	-3874
▁increases	-3875
LHS	-3876
^2)\	-3877
oo	-3878
57	-3879
ean	-3880
_2=\	-3881
+2^{	-3882
▁Pascal	-3883
▁observation	-3884
yn	-3885
▁circumcircles	-3886
YX	-3887
▁1+	-3888
_{1\	-3889
{2^{	-3890
▁according	-3891
▁counter	-3892
;4	-3893
857	-3894
bles	-3895
!}	-3896
/(	-3897
_{1}$	-3898
TC	-3899
▁-1$	-3900
▁reflect	-3901
bel	-3902
ames	-3903
-1}+\	-3904
{13	-3905
▁close	-3906
▁cance	-3907
▁sim	-3908
}}}	-3909
▁AMC	-3910
_1^{	-3911
▁tet	-3912
,2,3,	-3913
~~~~	-3914
!)	-3915
)-2	-3916
▁slo	-3917
inciple	-3918
_{10}	-3919
▁Every	-3920
▁geometry	-3921
EE	-3922
▁ACD	-3923
▁BAD	-3924
jectivity	-3925
▁_	-3926
QB	-3927
_3\	-3928
▁\}	-3929
utiful	-3930
▁Again	-3931
XP	-3932
▁Euler	-3933
▁student	-3934
▁version	-3935
)--(-	-3936
{1}{(	-3937
-8	-3938
sp	-3939
{15	-3940
erence	-3941
▁"$\	-3942
▁lol	-3943
▁choosing	-3944
▁subtract	-3945
')	-3946
{}	-3947
▁unless	-3948
▁map	-3949
-1=	-3950
{3\	-3951
▁3^{	-3952
▁almost	-3953
▁thread	-3954
▁Cho	-3955
(0)=0$	-3956
BS	-3957
,0),	-3958
▁separ	-3959
▁coloring	-3960
=0}^	-3961
angular	-3962
▁Di	-3963
▁subs	-3964
▁27	-3965
▁starts	-3966
▁allowed	-3967
(0,0	-3968
▁operations	-3969
91	-3970
TA	-3971
(1,1	-3972
▁vol	-3973
(-1)	-3974
ook	-3975
▁BCD	-3976
,2,3	-3977
▁moving	-3978
▁Our	-3979
▁finding	-3980
▁Points	-3981
▁ret	-3982
▁repeated	-3983
menides	-3984
graph	-3985
}{4}\	-3986
▁PS	-3987
+201	-3988
}}$,	-3989
▁Se	-3990
▁car	-3991
▁$(1)$	-3992
_0\	-3993
=2,	-3994
=201	-3995
+1}}{	-3996
BG	-3997
▁generality	-3998
.$\	-3999
▁switch	-4000
oc	-4001
dit	-4002
')$	-4003
▁old	-4004
▁jo	-4005
▁mag	-4006
-7	-4007
ba	-4008
+1)$.	-4009
▁1}^{	-4010
BR	-4011
CK	-4012
+2^	-4013
}{2},	-4014
^2=\	-4015
attice	-4016
)^4	-4017
MI	-4018
▁Vi	-4019
▁\{1,	-4020
)]	-4021
▁wanted	-4022
▁Not	-4023
▁counting	-4024
-4.	-4025
war	-4026
▁av	-4027
▁antipode	-4028
body	-4029
▁tells	-4030
▁BCA	-4031
^2-3	-4032
▁simplify	-4033
orean	-4034
}{9	-4035
▁Yes	-4036
On	-4037
-1)$.	-4038
▁become	-4039
▁FTSOC	-4040
▁internal	-4041
▁$3^	-4042
equently	-4043
▁Wr	-4044
{3}$	-4045
9$.	-4046
NC	-4047
▁Does	-4048
▁maybe	-4049
▁mentioned	-4050
▁questions	-4051
▁picture	-4052
▁(5	-4053
▁He	-4054
)--(2	-4055
73	-4056
▁best	-4057
+2,	-4058
▁sect	-4059
...$	-4060
HM	-4061
axis	-4062
▁exam	-4063
cont	-4064
▁Sum	-4065
▁opt	-4066
▁light	-4067
fa	-4068
03	-4069
man	-4070
41	-4071
▁0}	-4072
▁supp	-4073
142	-4074
.$$"	-4075
=180-\	-4076
76	-4077
QA	-4078
notin	-4079
=2}	-4080
ives	-4081
▁geometric	-4082
▁36	-4083
bound	-4084
DK	-4085
ML	-4086
▁dimension	-4087
▁CF	-4088
▁tetra	-4089
put	-4090
AZ	-4091
)}+\	-4092
from	-4093
▁Or	-4094
▁1/2	-4095
▁present	-4096
▁6$	-4097
)^2(	-4098
ring	-4099
▁leg	-4100
▁shall	-4101
▁repeat	-4102
▁7,	-4103
▁lattice	-4104
You	-4105
jection	-4106
▁contrary	-4107
+1)+	-4108
ault	-4109
▁Pythag	-4110
▁composite	-4111
▁multiplying	-4112
Psi	-4113
/5	-4114
▁locus	-4115
ABD	-4116
ully	-4117
▁\]"	-4118
ivid	-4119
IE	-4120
dt	-4121
ume	-4122
forward	-4123
PO	-4124
3333	-4125
PF	-4126
▁3(	-4127
▁mar	-4128
limin	-4129
▁nothing	-4130
)(1	-4131
orrect	-4132
^{2}\	-4133
▁charac	-4134
}{|	-4135
link	-4136
eters	-4137
=180^\	-4138
▁sha	-4139
ets	-4140
56	-4141
0,\	-4142
▁added	-4143
▁inverse	-4144
▁sk	-4145
_3$,	-4146
rence	-4147
^2)+	-4148
-201	-4149
▁independent	-4150
though	-4151
0}\	-4152
)^{2	-4153
▁$2(	-4154
textit	-4155
^8	-4156
▁measu	-4157
;3	-4158
▁faces	-4159
▁21	-4160
-1-	-4161
▁Indu	-4162
-1}=	-4163
▁letters	-4164
KA	-4165
=10	-4166
_1^	-4167
=3$,	-4168
)$"	-4169
free	-4170
da	-4171
▁paint	-4172
▁determined	-4173
▁motivation	-4174
CL	-4175
(0))	-4176
ased	-4177
▁ess	-4178
count	-4179
abcd	-4180
imilar	-4181
▁$=\	-4182
dbinom	-4183
Nice	-4184
▁Two	-4185
shift	-4186
▁EDIT	-4187
tab	-4188
▁fails	-4189
+1}(	-4190
46	-4191
QD	-4192
5$,	-4193
▁."	-4194
▁$200	-4195
▁partic	-4196
(6	-4197
CO	-4198
▁BF	-4199
▁$-1$	-4200
▁gir	-4201
▁pres	-4202
▁chooses	-4203
▁ball	-4204
(-\	-4205
MQ	-4206
▁(1-	-4207
▁swapp	-4208
kn	-4209
▁quadrilaterals	-4210
▁default	-4211
▁strings	-4212
vially	-4213
equence	-4214
58	-4215
▁yes	-4216
▁They	-4217
gg	-4218
12\	-4219
▁CAB	-4220
▁summ	-4221
▁create	-4222
ror	-4223
lush	-4224
vartriangle	-4225
_1}\	-4226
!\	-4227
▁Law	-4228
▁face	-4229
)--(3	-4230
▁working	-4231
+1}&	-4232
▁sense	-4233
))$.	-4234
SL	-4235
KD	-4236
lier	-4237
▁precise	-4238
▁{(	-4239
▁clockwise	-4240
(0.5	-4241
▁primitive	-4242
▁Well	-4243
Answer	-4244
▁return	-4245
}{2^{	-4246
▁care	-4247
▁friend	-4248
ank	-4249
^2)^2	-4250
ai	-4251
5^	-4252
chool	-4253
homb	-4254
|(	-4255
▁pent	-4256
▁resulting	-4257
▁substitution	-4258
▁CP	-4259
▁chess	-4260
▁ear	-4261
TB	-4262
autiful	-4263
ave	-4264
^2=2	-4265
▁rewrite	-4266
▁progression	-4267
-5.	-4268
▁PR	-4269
▁grad	-4270
)(1-	-4271
-2}$	-4272
^3(	-4273
▁cop	-4274
▁Compute	-4275
ctually	-4276
YC	-4277
,3.	-4278
▁CB	-4279
WLOG	-4280
ermat	-4281
▁$100$	-4282
|}	-4283
▁looks	-4284
4$,	-4285
pdf	-4286
Box	-4287
new	-4288
▁contained	-4289
})$.	-4290
▁pieces	-4291
HD	-4292
▁=&	-4293
▁Combining	-4294
##	-4295
ele	-4296
▁rather	-4297
________________	-4298
▁covered	-4299
▁Substituting	-4300
=$	-4301
uv	-4302
\;	-4303
longrightarrow	-4304
+1})	-4305
▁bigger	-4306
parmenides	-4307
29	-4308
▁Of	-4309
▁Un	-4310
▁deal	-4311
79	-4312
tri	-4313
▁stuff	-4314
▁reduces	-4315
cre	-4316
"".	-4317
)=0$,	-4318
▁symmedian	-4319
+1}=\	-4320
▁circumcent	-4321
5),	-4322
▁1.$	-4323
8$.	-4324
ane	-4325
▁Edit	-4326
▁beginning	-4327
)),	-4328
_0^	-4329
}{=}	-4330
▁10^	-4331
▁rhomb	-4332
▁Choose	-4333
Also	-4334
ifies	-4335
80^{\	-4336
blush	-4337
▁QR	-4338
-10	-4339
200	-4340
▁distrib	-4341
aligned	-4342
1-	-4343
etic	-4344
{2}$	-4345
▁thanks	-4346
▁decreases	-4347
etition	-4348
XM	-4349
uss	-4350
▁5.	-4351
▁ph	-4352
▁tetrahedron	-4353
▁//	-4354
▁contrib	-4355
▁distances	-4356
suit	-4357
ew	-4358
▁circums	-4359
mit	-4360
tabular	-4361
▁standard	-4362
▁involution	-4363
cu	-4364
^2}{2}	-4365
▁neither	-4366
▁hope	-4367
tun	-4368
XZ	-4369
attern	-4370
-1,1	-4371
▁Say	-4372
ism	-4373
^{2}-	-4374
bola	-4375
ited	-4376
^3}	-4377
_0$.	-4378
▁pentagon	-4379
ynth	-4380
using	-4381
▁everyone	-4382
=3$.	-4383
▁AIME	-4384
▁swap	-4385
ultiplying	-4386
▁ray	-4387
imate	-4388
▁hint	-4389
▁8$	-4390
},$$	-4391
)\)	-4392
7$.	-4393
{2(	-4394
▁whenever	-4395
)^2-	-4396
83	-4397
IN	-4398
▁AL	-4399
.....	-4400
^{200	-4401
▁quant	-4402
▁connecting	-4403
▁rgb	-4404
▁piece	-4405
'_	-4406
arg	-4407
ners	-4408
▁forgot	-4409
▁slope	-4410
▁belongs	-4411
▁fl	-4412
ffect	-4413
IM	-4414
vable	-4415
angled	-4416
_{2}$	-4417
▁arri	-4418
▁hit	-4419
ics	-4420
{1+\	-4421
^{10}	-4422
▁pattern	-4423
▁writing	-4424
▁volume	-4425
▁vis	-4426
▁force	-4427
▁rotation	-4428
▁Po	-4429
^2}}	-4430
constant	-4431
-9	-4432
1)	-4433
▁exponent	-4434
▁ADB	-4435
bounded	-4436
▁closed	-4437
GF	-4438
rog	-4439
_3$.	-4440
unit	-4441
SolutionLet	-4442
What	-4443
101	-4444
▁union	-4445
▁Firstly	-4446
▁rhombus	-4447
-2^	-4448
5}$	-4449
▁PD	-4450
htt	-4451
call	-4452
ided	-4453
▁AS	-4454
OQ	-4455
}+1	-4456
^3+2	-4457
▁needs	-4458
▁bijective	-4459
86	-4460
▁minor	-4461
▁yz	-4462
----	-4463
ament	-4464
itely	-4465
▁leaves	-4466
▁orthogonal	-4467
▁Adding	-4468
▁entries	-4469
▁7$	-4470
7),	-4471
▁Contradiction	-4472
)}{2	-4473
GC	-4474
▁AR	-4475
illed	-4476
▁based	-4477
▁character	-4478
▁intervals	-4479
bigtriangle	-4480
rs	-4481
akes	-4482
+3\	-4483
========	-4484
DH	-4485
▁exceed	-4486
▁decimal	-4487
bigtriangleup	-4488
}$$$$	-4489
radii	-4490
circum	-4491
_9	-4492
▁invert	-4493
▁preser	-4494
▁checking	-4495
▁PB	-4496
HA	-4497
IB	-4498
▁room	-4499
dy	-4500
-1}-	-4501
warz	-4502
▁Use	-4503
1+	-4504
▁proposed	-4505
6$,	-4506
_4,	-4507
}{6}	-4508
mbers	-4509
▁Nice	-4510
MF	-4511
onder	-4512
▁counted	-4513
▁straightforward	-4514
oring	-4515
▁remember	-4516
'}$	-4517
▁notic	-4518
Clearly	-4519
▁jump	-4520
▁Applying	-4521
▁assuming	-4522
▁identical	-4523
PN	-4524
▁$-\	-4525
However	-4526
"",	-4527
pec	-4528
hence	-4529
PK	-4530
▁Int	-4531
▁DF	-4532
▁days	-4533
}^2	-4534
-1})	-4535
position	-4536
[3]{\	-4537
▁checked	-4538
▁sending	-4539
=0\	-4540
TI	-4541
bash	-4542
▁tile	-4543
▁sever	-4544
▁Please	-4545
rational	-4546
DN	-4547
▁BB	-4548
ariant	-4549
▁claimed	-4550
(1)\	-4551
sk	-4552
that	-4553
enela	-4554
▁!	-4555
023	-4556
▁summing	-4557
▁derivative	-4558
▁essentially	-4559
(0)\	-4560
▁evalu	-4561
▁sphere	-4562
+12	-4563
ablish	-4564
▁32	-4565
▁sketch	-4566
HP	-4567
▁years	-4568
Is	-4569
Using	-4570
▁considered	-4571
▁sent	-4572
TD	-4573
▁1}^	-4574
▁5^	-4575
KB	-4576
ub	-4577
022	-4578
rox	-4579
▁field	-4580
▁projective	-4581
tr	-4582
ested	-4583
GE	-4584
^2=1	-4585
▁earlier	-4586
▁precisely	-4587
eva	-4588
▁mess	-4589
ixt	-4590
_1^2+	-4591
54	-4592
ellow	-4593
▁delete	-4594
▁putting	-4595
]+	-4596
2}\	-4597
^2}{4	-4598
123	-4599
▁5$,	-4600
chwarz	-4601
)}}	-4602
(1)+	-4603
ansion	-4604
▁regions	-4605
za	-4606
▁slight	-4607
▁BM	-4608
▁several	-4609
underline	-4610
0,2	-4611
▁members	-4612
▁$4$,	-4613
=1,2,\	-4614
{[	-4615
cri	-4616
)}{2}	-4617
1}$	-4618
▁extre	-4619
▁$101	-4620
▁1)^2	-4621
6}$	-4622
=5$	-4623
▁{3	-4624
▁1{	-4625
▁8,	-4626
▁inform	-4627
▁decrease	-4628
▁23	-4629
entric	-4630
mo	-4631
+2}$	-4632
▁Reim	-4633
▁continue	-4634
▁restri	-4635
tunately	-4636
▁beautiful	-4637
[4	-4638
list	-4639
▁unbounded	-4640
▁contradicting	-4641
-3$	-4642
vers	-4643
)$$$$	-4644
▁missing	-4645
▁(2,	-4646
▁norm	-4647
▁computation	-4648
king	-4649
_{1}}	-4650
▁relations	-4651
GD	-4652
ures	-4653
▁border	-4654
▁|\	-4655
{3}{	-4656
▁Angle	-4657
|^2	-4658
,1),	-4659
textcolor	-4660
▁bijection	-4661
▁establish	-4662
▁BI	-4663
▁DA	-4664
}}{2}	-4665
▁Draw	-4666
▁functional	-4667
▁4(	-4668
Solved	-4669
▁BX	-4670
_0$,	-4671
▁places	-4672
▁ag	-4673
,2),	-4674
▁mass	-4675
▁rook	-4676
▁former	-4677
equality	-4678
_1}$	-4679
▁BPC	-4680
▁fli	-4681
,...,	-4682
▁Solving	-4683
rd	-4684
_3=	-4685
rule	-4686
▁$4\	-4687
nally	-4688
Com	-4689
-1)}	-4690
▁Fix	-4691
,2)$	-4692
▁ign	-4693
)_{	-4694
▁ever	-4695
▁elimin	-4696
▁mind	-4697
+...	-4698
-1}}{	-4699
▁substituting	-4700
textrm	-4701
▁teams	-4702
Yes	-4703
sub	-4704
;=&	-4705
arch	-4706
▁saying	-4707
size	-4708
▁Could	-4709
OI	-4710
OX	-4711
▁nor	-4712
▁trivially	-4713
(0)+	-4714
▁ABCD	-4715
▁situ	-4716
▁Vieta	-4717
▁cities	-4718
▁component	-4719
▁(3)	-4720
*2	-4721
71	-4722
Be	-4723
BCD	-4724
),$$	-4725
▁Olympiad	-4726
aa	-4727
-12	-4728
▁circumscribed	-4729
,(	-4730
▁((	-4731
▁Done	-4732
▁$=$	-4733
approx	-4734
▁Thank	-4735
▁expansion	-4736
▁him	-4737
▁hours	-4738
▁Fermat	-4739
8),	-4740
any	-4741
▁9$	-4742
▁monot	-4743
MT	-4744
▁recursion	-4745
▁selected	-4746
0,0),	-4747
enelaus	-4748
▁components	-4749
rho	-4750
▁,\	-4751
▁bre	-4752
▁overla	-4753
▁arrangement	-4754
((-	-4755
+2)(	-4756
Define	-4757
▁inst	-4758
▁removed	-4759
▁substitute	-4760
bol	-4761
ep	-4762
excircle	-4763
▁initially	-4764
Enh	-4765
-2$.	-4766
▁free	-4767
ulation	-4768
GB	-4769
To	-4770
iki	-4771
▁120	-4772
▁Line	-4773
▁notation	-4774
▁$(*	-4775
izing	-4776
Enhance	-4777
;2$	-4778
▁5$.	-4779
▁Some	-4780
-2)(	-4781
80^\	-4782
^3+3	-4783
▁wonder	-4784
▁uses	-4785
▁actual	-4786
▁exc	-4787
025	-4788
CR	-4789
ynthetic	-4790
maybe	-4791
/\	-4792
izes	-4793
}$$"	-4794
▁town	-4795
▁unity	-4796
what	-4797
Denote	-4798
(4.	-4799
▁aren	-4800
▁factorization	-4801
▁rock	-4802
▁current	-4803
▁BQ	-4804
▁ok	-4805
▁PA	-4806
even	-4807
▁uniquely	-4808
ators	-4809
EP	-4810
oh	-4811
diam	-4812
▁realized	-4813
'-	-4814
=3,	-4815
▁(1+	-4816
▁frog	-4817
▁reduce	-4818
▁principle	-4819
chi	-4820
=100	-4821
▁via	-4822
60^\	-4823
▁Are	-4824
▁claims	-4825
▁orient	-4826
_0^{\	-4827
DG	-4828
^4-	-4829
ymin	-4830
▁2016	-4831
▁olympiad	-4832
^2}=\	-4833
RHS	-4834
▁Equality	-4835
)=3	-4836
})^2	-4837
}{3}}	-4838
▁swaps	-4839
▁boundary	-4840
▁perpendiculars	-4841
▁2019	-4842
(9	-4843
▁trig	-4844
▁lying	-4845
▁noting	-4846
▁error	-4847
kp	-4848
▁}$	-4849
DY	-4850
|,	-4851
▁$\{1,	-4852
▁logic	-4853
CT	-4854
▁ev	-4855
▁weights	-4856
,1,	-4857
chn	-4858
rows	-4859
^{2}$	-4860
hand	-4861
^2+1)	-4862
excenter	-4863
60^{\	-4864
▁5\	-4865
tuple	-4866
▁fourth	-4867
+3$	-4868
▁typo	-4869
HB	-4870
▁CQ	-4871
note	-4872
ons	-4873
▁feel	-4874
Determine	-4875
Ex	-4876
BIC	-4877
]=\	-4878
_2^2	-4879
partial	-4880
▁realize	-4881
+1&	-4882
021	-4883
▁possibility	-4884
▁mn	-4885
_2}\	-4886
▁$0,	-4887
▁bar	-4888
'+	-4889
▁0.5	-4890
{1}{2}(	-4891
▁Pythagorean	-4892
*(	-4893
▁$12$	-4894
▁includ	-4895
odd	-4896
▁$11	-4897
▁theory	-4898
;0,	-4899
*3	-4900
{4}{	-4901
OE	-4902
psi	-4903
▁CC	-4904
)^2$,	-4905
▁assumed	-4906
▁pile	-4907
▁mom	-4908
53	-4909
9,1	-4910
▁Col	-4911
▁LTE	-4912
▁constructed	-4913
▁AY	-4914
No	-4915
ires	-4916
lubs	-4917
▁couldn	-4918
▁$99	-4919
)}=	-4920
▁MO	-4921
ised	-4922
▁sine	-4923
alog	-4924
▁ADE	-4925
▁{2}	-4926
▁forms	-4927
▁differenti	-4928
HH	-4929
▁Pick	-4930
KP	-4931
~\	-4932
▁style	-4933
▁endpoints	-4934
org	-4935
^2-\	-4936
gent	-4937
▁Write	-4938
▁yielding	-4939
{17	-4940
▁irrational	-4941
+...+	-4942
▁subtracting	-4943
ken	-4944
-1)$,	-4945
4,5,	-4946
empt	-4947
PI	-4948
▁KL	-4949
ying	-4950
▁injectivity	-4951
▁....	-4952
▁fair	-4953
)=4	-4954
.\]"	-4955
MH	-4956
▁measure	-4957
PY	-4958
▁1}\	-4959
7$,	-4960
ius	-4961
▁Quote	-4962
▁meant	-4963
ematical	-4964
UV	-4965
itionally	-4966
:-	-4967
.)"	-4968
bot	-4969
((-0.	-4970
Similarly	-4971
▁information	-4972
▁Am	-4973
▁child	-4974
_8	-4975
OL	-4976
uy	-4977
def	-4978
▁CRT	-4979
▁simplifies	-4980
_0)	-4981
^^	-4982
+1+	-4983
unny	-4984
▁Construct	-4985
▁came	-4986
▁cubes	-4987
▁homog	-4988
019	-4989
Well	-4990
SolutionWe	-4991
SA	-4992
Just	-4993
\]\[	-4994
0)	-4995
7,1	-4996
▁applic	-4997
▁rearrang	-4998
▁fractions	-4999
lies	-5000
▁APB	-5001
^2}$.	-5002
▁option	-5003
▁:-	-5004
ymax	-5005
▁0)$	-5006
-1}&	-5007
▁regard	-5008
▁corners	-5009
▁neighbors	-5010
▁$|\	-5011
land	-5012
olog	-5013
▁axes	-5014
/1	-5015
▁cr	-5016
ah	-5017
xi	-5018
(1),	-5019
▁${\	-5020
▁Exp	-5021
▁corresponds	-5022
KE	-5023
)=2$	-5024
▁Power	-5025
▁details	-5026
▁colinear	-5027
5,1	-5028
▁cancel	-5029
(8	-5030
PH	-5031
^4$	-5032
▁Ar	-5033
▁BDC	-5034
▁open	-5035
▁asked	-5036
rop	-5037
[1	-5038
XE	-5039
{{\	-5040
SC	-5041
▁converse	-5042
5)	-5043
|$,	-5044
^{2\	-5045
▁WRT	-5046
OH	-5047
APQ	-5048
▁sq	-5049
{3}}	-5050
Sorry	-5051
rimin	-5052
coordin	-5053
▁achieve	-5054
(-1	-5055
1),	-5056
▁9,	-5057
ensen	-5058
▁coincide	-5059
mbox	-5060
ract	-5061
▁city	-5062
▁slightly	-5063
▁existence	-5064
)-1	-5065
▁$1+	-5066
DT	-5067
▁-1,	-5068
▁sort	-5069
ND	-5070
^3)	-5071
!!!!	-5072
▁22	-5073
▁---	-5074
▁\[2	-5075
▁2^{\	-5076
▁extra	-5077
zz	-5078
}$$$$\	-5079
▁incorrect	-5080
ADE	-5081
▁$4$.	-5082
OT	-5083
irm	-5084
acci	-5085
▁consisting	-5086
▁radii	-5087
▁}{	-5088
ello	-5089
istic	-5090
▁bump	-5091
▁neighbour	-5092
ouch	-5093
DD	-5094
,0)	-5095
008	-5096
▁recurrence	-5097
▁imag	-5098
▁signs	-5099
▁school	-5100
cl	-5101
}=2	-5102
lol	-5103
▁quantity	-5104
cool	-5105
▁differences	-5106
392	-5107
▁1),	-5108
▁saw	-5109
▁important	-5110
here	-5111
▁states	-5112
AJ	-5113
=12	-5114
▁pq	-5115
▁namely	-5116
▁projections	-5117
)=-1$	-5118
onacci	-5119
▁Setting	-5120
}{16	-5121
▁circumradius	-5122
▁CBA	-5123
▁determin	-5124
3}$	-5125
}{2(	-5126
▁wasn	-5127
▁MC	-5128
▁excircle	-5129
*\	-5130
ina	-5131
yset	-5132
▁2017	-5133
ilinear	-5134
▁incent	-5135
RQ	-5136
ACB	-5137
{20	-5138
eros	-5139
=0}^{\	-5140
▁intersecting	-5141
]}{	-5142
used	-5143
▁iss	-5144
_1}+\	-5145
▁remark	-5146
ACD	-5147
▁hy	-5148
▁tuple	-5149
LK	-5150
fe	-5151
AMO	-5152
igen	-5153
▁maximize	-5154
sa	-5155
▁moment	-5156
▁Inequality	-5157
emptyset	-5158
]{\	-5159
▁1)$.	-5160
IF	-5161
^4\	-5162
-2^{	-5163
▁discrimin	-5164
▁transformation	-5165
▁DAC	-5166
2)	-5167
:=	-5168
{4\	-5169
▁6\	-5170
▁compa	-5171
▁dt	-5172
▁pl	-5173
▁APQ	-5174
diamond	-5175
+4\	-5176
day	-5177
▁(3,	-5178
▁Tri	-5179
▁plus	-5180
))-	-5181
▁competition	-5182
_1|	-5183
)^2+\	-5184
lvert	-5185
[(	-5186
^5+	-5187
_5$	-5188
lex	-5189
^2)}{	-5190
erely	-5191
▁thinking	-5192
▁reasoning	-5193
6,1	-5194
▁tiles	-5195
▁own	-5196
}$;	-5197
}}=	-5198
_2^{	-5199
▁calculation	-5200
▁[\	-5201
Which	-5202
▁drawing	-5203
▁?"	-5204
▁1}}	-5205
hu	-5206
▁vi	-5207
0,0)$	-5208
least	-5209
▁BY	-5210
▁II	-5211
roll	-5212
▁upon	-5213
/6	-5214
ucl	-5215
▁suc	-5216
▁interpre	-5217
▁configurations	-5218
▁division	-5219
▁represented	-5220
▁roll	-5221
▁chessboard	-5222
8$,	-5223
))^2	-5224
^3$.	-5225
▁cou	-5226
▁attach	-5227
asically	-5228
▁optimal	-5229
▁agree	-5230
4)	-5231
NE	-5232
below	-5233
symmedian	-5234
unch	-5235
;0\	-5236
}{2}-\	-5237
IP	-5238
alt	-5239
▁dont	-5240
▁Check	-5241
▁include	-5242
ades	-5243
5}\	-5244
=1\	-5245
nf	-5246
{27	-5247
reduc	-5248
SP	-5249
nam	-5250
▁$11$	-5251
TM	-5252
▁(-1)^	-5253
▁invariant	-5254
bi	-5255
))$,	-5256
▁pigeonhole	-5257
▁4:	-5258
)(1+	-5259
_{2^	-5260
_0=	-5261
{24	-5262
▁1+\	-5263
▁combined	-5264
3)	-5265
son	-5266
)=0\	-5267
▁xyz	-5268
▁avoid	-5269
▁^2	-5270
▁hypot	-5271
▁zeroes	-5272
▁dimensions	-5273
(90	-5274
+1)^	-5275
/2$.	-5276
▁DBC	-5277
+1)$,	-5278
ling	-5279
▁QED	-5280
{1}{1+	-5281
▁eigen	-5282
+2}\	-5283
▁6.	-5284
▁low	-5285
mx	-5286
0&	-5287
06	-5288
ience	-5289
▁Ceva	-5290
(0)=0$.	-5291
00000000	-5292
▁=1	-5293
▁harder	-5294
9$,	-5295
jor	-5296
▁0.$	-5297
▁longer	-5298
(1))	-5299
^2$$	-5300
▁speed	-5301
ze	-5302
^2+5	-5303
▁fla	-5304
uk	-5305
^2+1}	-5306
▁rearrange	-5307
-3\	-5308
oops	-5309
▁2011	-5310
▁chords	-5311
▁derive	-5312
▁letter	-5313
](	-5314
)=(2	-5315
▁synthetic	-5316
LC	-5317
▁plays	-5318
fortunately	-5319
orph	-5320
▁(0,1	-5321
▁Easy	-5322
tbinom	-5323
ontsize	-5324
(7	-5325
RC	-5326
▁$16	-5327
}{12}	-5328
{1}{2^	-5329
▁collection	-5330
▁10$	-5331
▁leave	-5332
▁particip	-5333
:}$	-5334
rich	-5335
▁-1$.	-5336
tracting	-5337
▁irreduc	-5338
!}{	-5339
▁"(	-5340
▁randomly	-5341
▁Additionally	-5342
,0.	-5343
▁ru	-5344
▁1000	-5345
spades	-5346
ycentric	-5347
spadesuit	-5348
▁equivalently	-5349
HF	-5350
▁0)	-5351
((0,	-5352
^2)}	-5353
▁\{1,2	-5354
LM	-5355
▁reverse	-5356
Qu	-5357
RP	-5358
tempt	-5359
▁requires	-5360
▁cubic	-5361
▁discriminant	-5362
▁OP	-5363
▁combination	-5364
ky	-5365
3^{	-5366
▁es	-5367
;\;\	-5368
▁reduced	-5369
+1),	-5370
Take	-5371
{3}$.	-5372
suming	-5373
▁chance	-5374
IJ	-5375
iA	-5376
▁Bro	-5377
▁techn	-5378
{2}{\	-5379
▁posting	-5380
circumcircle	-5381
OR	-5382
ilt	-5383
rew	-5384
enuse	-5385
atever	-5386
▁Round	-5387
sequently	-5388
ixtilinear	-5389
cf	-5390
▁cm	-5391
}^{\	-5392
▁zeros	-5393
▁remain	-5394
{1}{2}$.	-5395
▁4)	-5396
▁$5$,	-5397
▁lamp	-5398
ibility	-5399
}.\	-5400
▁kn	-5401
=90-\	-5402
-2$,	-5403
}{201	-5404
▁$20$	-5405
+1/	-5406
9),	-5407
km	-5408
▁-(	-5409
^{4}	-5410
^2-1)	-5411
▁2018	-5412
CG	-5413
2}$	-5414
)}$$	-5415
▁0$$	-5416
aster	-5417
ltern	-5418
rvert	-5419
▁rece	-5420
▁$2^{2	-5421
▁applied	-5422
................	-5423
=&	-5424
-1&	-5425
▁clique	-5426
SB	-5427
▁que	-5428
????	-5429
▁\]\[	-5430
▁knows	-5431
+1)}{2}	-5432
diamondsuit	-5433
▁gave	-5434
▁Summing	-5435
▁described	-5436
{0	-5437
ness	-5438
▁\{2	-5439
}{3}$.	-5440
$?"	-5441
(-2	-5442
omain	-5443
textstyle	-5444
*}"	-5445
+2$.	-5446
colon	-5447
▁stronger	-5448
+16	-5449
QM	-5450
=(2	-5451
0,0,	-5452
▁PBC	-5453
▁ell	-5454
▁CI	-5455
sure	-5456
clubs	-5457
=-1$	-5458
https	-5459
▁Letting	-5460
alogously	-5461
}}+	-5462
▁domino	-5463
▁respective	-5464
▁expressions	-5465
kb	-5466
8,1	-5467
▁$5^	-5468
clubsuit	-5469
NA	-5470
▁cand	-5471
▁mine	-5472
ten	-5473
▁followed	-5474
▁3}	-5475
▁Maybe	-5476
clockwise	-5477
▁removing	-5478
|2	-5479
rot	-5480
▁-1\	-5481
▁conjugates	-5482
▁defaultpen	-5483
PP	-5484
/2)	-5485
_2}$	-5486
▁marbles	-5487
vant	-5488
atrices	-5489
▁attempt	-5490
▁AEF	-5491
▁PoP	-5492
▁Jensen	-5493
ml	-5494
▁op	-5495
wrwr	-5496
▁swapping	-5497
▁La	-5498
▁br	-5499
▁vary	-5500
eqn	-5501
overarc	-5502
^3-3	-5503
licit	-5504
▁level	-5505
_1,...,	-5506
▁homothetic	-5507
XI	-5508
1:	-5509
Schwarz	-5510
▁writes	-5511
(100	-5512
...(	-5513
▁2)$	-5514
▁ideas	-5515
▁provide	-5516
▁ratios	-5517
▁goal	-5518
▁semic	-5519
▁arrang	-5520
px	-5521
▁ring	-5522
ler	-5523
▁DAB	-5524
▁wants	-5525
▁arrive	-5526
▁CL	-5527
arent	-5528
lusive	-5529
▁stone	-5530
▁wrwrwr	-5531
26	-5532
''$	-5533
.}$	-5534
▁CM	-5535
▁Menelaus	-5536
▁replaced	-5537
eled	-5538
▁atleast	-5539
omorph	-5540
▁conven	-5541
▁matching	-5542
▁irreducible	-5543
\]"	-5544
-1),	-5545
iling	-5546
▁Look	-5547
▁floor	-5548
▁(-1)^{	-5549
▁[0,1	-5550
ultane	-5551
)=-1	-5552
▁:("	-5553
▁inductively	-5554
▁Construction	-5555
face	-5556
▁stick	-5557
▁leftmost	-5558
]}	-5559
▁ten	-5560
eqnarray	-5561
▁guarantee	-5562
hh	-5563
ses	-5564
▁.$	-5565
▁sl	-5566
^2)$.	-5567
▁Actually	-5568
▁Multiplying	-5569
ZY	-5570
Sub	-5571
▁geo	-5572
+1)}{	-5573
▁$(4	-5574
(1)$.	-5575
^2+6	-5576
aded	-5577
ocus	-5578
▁ago	-5579
ympt	-5580
▁$5$.	-5581
(0.4));	-5582
_{0}^{1	-5583
EG	-5584
$""	-5585
▁multiplicative	-5586
oured	-5587
▁posts	-5588
▁Second	-5589
▁monoton	-5590
},\]	-5591
Because	-5592
▁mapping	-5593
EX	-5594
''(	-5595
city	-5596
ier	-5597
}+2	-5598
▁solves	-5599
ibonacci	-5600
Ar	-5601
}{10	-5602
▁missed	-5603
▁subgraph	-5604
2+	-5605
IT	-5606
)$;	-5607
/2,	-5608
{-1	-5609
{1-\	-5610
+1}}\	-5611
▁labeled	-5612
^2=(	-5613
lace	-5614
▁ending	-5615
▁normal	-5616
▁girls	-5617
▁hypotenuse	-5618
_3}	-5619
centre	-5620
ood	-5621
▁qq	-5622
▁family	-5623
▁whence	-5624
SE	-5625
0),	-5626
;0&	-5627
▁+2	-5628
=0,1	-5629
Very	-5630
^{1/	-5631
▁dots	-5632
▁highest	-5633
]:	-5634
,201	-5635
ising	-5636
▁termin	-5637
▁elementary	-5638
001	-5639
=-1	-5640
((0.	-5641
59	-5642
▁major	-5643
▁simultane	-5644
*}\	-5645
length	-5646
▁account	-5647
-|	-5648
edge	-5649
iy	-5650
say	-5651
▁fr	-5652
(1.2	-5653
▁closer	-5654
▁ignore	-5655
▁Similar	-5656
otherwise	-5657
degree	-5658
▁SolutionLet	-5659
Ind	-5660
▁CAD	-5661
▁XYZ	-5662
richlet	-5663
▁figures	-5664
PT	-5665
|=\	-5666
}\)	-5667
▁rays	-5668
▁games	-5669
)))	-5670
▁CY	-5671
▁bro	-5672
unders	-5673
OF	-5674
^{5	-5675
▁PM	-5676
{4}$	-5677
▁reasons	-5678
\},	-5679
Dear	-5680
▁ABP	-5681
▁$(2)$	-5682
▁wording	-5683
cz	-5684
ser	-5685
{19	-5686
9999	-5687
▁Rad	-5688
▁quickly	-5689
((-1	-5690
(2)=	-5691
tole	-5692
▁10,	-5693
▁Like	-5694
▁determinant	-5695
ber	-5696
▁:\	-5697
▁including	-5698
sm	-5699
}\,	-5700
eful	-5701
umpty	-5702
▁CH	-5703
)}$,	-5704
}\}$	-5705
^2}{(	-5706
▁minute	-5707
▁2-	-5708
▁BIC	-5709
_3-	-5710
rodu	-5711
7}$	-5712
img	-5713
iled	-5714
(1)=1$	-5715
8}$	-5716
div	-5717
▁++	-5718
▁($\	-5719
▁reached	-5720
▁Sim	-5721
,2,...,	-5722
Another	-5723
▁covers	-5724
▁semicircle	-5725
_0}	-5726
_5(	-5727
▁matrices	-5728
erex	-5729
inese	-5730
▁iter	-5731
▁situation	-5732
▁Consequently	-5733
2),	-5734
;1&	-5735
▁CN	-5736
ended	-5737
ctan	-5738
▁$$$$	-5739
▁10^{	-5740
▁lose	-5741
▁heads	-5742
▁generalization	-5743
(2)$	-5744
▁build	-5745
▁shape	-5746
creasing	-5747
▁$$1	-5748
_{2},	-5749
▁dominoes	-5750
BZ	-5751
oe	-5752
▁finished	-5753
▁correctly	-5754
ium	-5755
see	-5756
-2}\	-5757
▁rigor	-5758
▁colours	-5759
2-	-5760
TX	-5761
,3),	-5762
▁pur	-5763
▁Oh	-5764
▁explicit	-5765
GA	-5766
▁\{0,	-5767
▁showed	-5768
(4)	-5769
fill	-5770
iest	-5771
like	-5772
▁Per	-5773
▁Where	-5774
▁piles	-5775
DL	-5776
+1)(2	-5777
quaring	-5778
^3=	-5779
_2)\	-5780
▁(*)	-5781
▁cool	-5782
▁cardin	-5783
▁partial	-5784
▁-3	-5785
iner	-5786
▁edit	-5787
▁pole	-5788
element	-5789
▁instance	-5790
▁repeatedly	-5791
3}\	-5792
_1)\	-5793
foot	-5794
}{2}=	-5795
▁;)	-5796
▁_{	-5797
8));	-5798
umps	-5799
▁Both	-5800
▁haven	-5801
▁Induct	-5802
,1)	-5803
tuse	-5804
▁$13	-5805
▁varies	-5806
▁bashing	-5807
{14	-5808
{}$	-5809
=(0,	-5810
back	-5811
▁break	-5812
▁loses	-5813
▁extreme	-5814
XQ	-5815
▁late	-5816
licated	-5817
XX	-5818
\\&	-5819
▁:=	-5820
ADC	-5821
Can	-5822
agrange	-5823
▁whatever	-5824
▁art	-5825
OK	-5826
fin	-5827
abel	-5828
▁(2^	-5829
▁Circle	-5830
▁graphs	-5831
▁2014	-5832
▁sines	-5833
sqing	-5834
^{10	-5835
▁replacing	-5836
),\]	-5837
SR	-5838
▁rev	-5839
}{5}\	-5840
▁filled	-5841
▁supposed	-5842
=4$,	-5843
place	-5844
▁resp	-5845
▁curve	-5846
▁achievable	-5847
▁calculations	-5848
NP	-5849
▁usual	-5850
enerate	-5851
▁Fibonacci	-5852
HQ	-5853
ots	-5854
▁28	-5855
▁Ho	-5856
(0)$.	-5857
ification	-5858
ja	-5859
▁MB	-5860
+1)!	-5861
ipro	-5862
ouis	-5863
▁parabola	-5864
▁ta	-5865
ature	-5866
▁stop	-5867
incerely	-5868
)[/	-5869
+2$,	-5870
2}$.	-5871
do	-5872
upid	-5873
▁suit	-5874
=2(	-5875
▁yf	-5876
_{1}+	-5877
▁Ext	-5878
▁comparing	-5879
^9	-5880
nb	-5881
=(1	-5882
▁ABE	-5883
_2}+\	-5884
KN	-5885
fl	-5886
▁BT	-5887
'}=\	-5888
itted	-5889
oplus	-5890
▁2015	-5891
▁complement	-5892
np	-5893
AMN	-5894
)=(1	-5895
}{100	-5896
rangle	-5897
RB	-5898
odes	-5899
reat	-5900
})=\	-5901
▁useful	-5902
}=(	-5903
^2+1$	-5904
-1}{2}$	-5905
▁confirm	-5906
▁constra	-5907
▁analogously	-5908
▁barycentric	-5909
contradiction	-5910
=0.	-5911
When	-5912
▁ord	-5913
ipart	-5914
/8	-5915
]=[	-5916
{3}$,	-5917
^{2}}{	-5918
langle	-5919
ton	-5920
▁,$	-5921
▁$$|	-5922
▁Evan	-5923
▁comm	-5924
tolemy	-5925
▁tourn	-5926
0-	-5927
▁minimize	-5928
▁stated	-5929
▁yellow	-5930
▁alternate	-5931
DO	-5932
ips	-5933
▁hyper	-5934
}{4}$.	-5935
trivial	-5936
▁recipro	-5937
▁numbered	-5938
_2...	-5939
eneral	-5940
NQ	-5941
745	-5942
BHC	-5943
▁DB	-5944
▁manip	-5945
,5	-5946
-1+	-5947
▁49	-5948
▁EG	-5949
}{7}	-5950
▁somehow	-5951
▁BH	-5952
IL	-5953
)|\	-5954
just	-5955
▁possibly	-5956
=3\	-5957
]+[	-5958
▁PAB	-5959
)^2}\	-5960
MM	-5961
|}{|	-5962
Louis	-5963
▁minimality	-5964
(0),	-5965
That	-5966
head	-5967
wall	-5968
▁anti	-5969
▁basic	-5970
▁Another	-5971
decreasing	-5972
OS	-5973
=6$	-5974
iii	-5975
▁2020	-5976
^{-1}(	-5977
)(3	-5978
▁\;\;	-5979
▁ensure	-5980
▁manner	-5981
▁changed	-5982
▁directions	-5983
))=\	-5984
arctan	-5985
▁assigned	-5986
▁rightmost	-5987
▁additional	-5988
▁Analogously	-5989
FP	-5990
IK	-5991
▁35	-5992
▁cx	-5993
▁DP	-5994
▁spa	-5995
_{1}\	-5996
▁simultaneously	-5997
.(	-5998
▁6$.	-5999
▁Jean	-6000
Not	-6001
▁\}$.	-6002
▁forced	-6003
{2}\	-6004
▁obtuse	-6005
rif	-6006
▁hull	-6007
▁turned	-6008
▁coloured	-6009
KF	-6010
▁OM	-6011
ashed	-6012
▁opin	-6013
▁USAMO	-6014
=|	-6015
IX	-6016
▁classes	-6017
▁Triangle	-6018
▁constants	-6019
▁counterex	-6020
+3^	-6021
12$	-6022
=(\	-6023
▁(-1	-6024
▁proced	-6025
▁nonempty	-6026
▁bounds	-6027
▁64	-6028
^2(\	-6029
▁fine	-6030
▁flip	-6031
Te	-6032
▁definitely	-6033
Set	-6034
▁)$	-6035
▁seconds	-6036
exp	-6037
_1)(	-6038
▁beh	-6039
-1}=\	-6040
▁Eucl	-6041
▁Repe	-6042
▁divisibility	-6043
/9	-6044
2(	-6045
▁wait	-6046
mas	-6047
^3$,	-6048
▁-1$,	-6049
=1}^{2	-6050
▁eigenval	-6051
▁Sincerely	-6052
qr	-6053
Show	-6054
pers	-6055
▁Base	-6056
1&	-6057
EI	-6058
▁cd	-6059
▁0\]	-6060
▁12$	-6061
142857	-6062
unitsquare	-6063
▁expanding	-6064
▁restriction	-6065
▁Ok	-6066
▁1$$	-6067
alind	-6068
▁Without	-6069
*}$	-6070
+3)	-6071
▁DM	-6072
▁EC	-6073
▁asks	-6074
▁magn	-6075
▁clean	-6076
▁section	-6077
▁congruence	-6078
▁$20	-6079
-1)}{	-6080
}{2},\	-6081
)\,	-6082
▁oops	-6083
▁search	-6084
▁changing	-6085
XT	-6086
▁"[	-6087
▁1)}	-6088
▁domain	-6089
▁evident	-6090
998	-6091
ush	-6092
▁sit	-6093
▁spent	-6094
▁higher	-6095
^2+1)(	-6096
▁2*	-6097
anced	-6098
▁walk	-6099
7^	-6100
▁80	-6101
})$,	-6102
▁stupid	-6103
▁playing	-6104
lf	-6105
_2|	-6106
rian	-6107
romatic	-6108
wallbash	-6109
▁sill	-6110
coordinate	-6111
▁combinator	-6112
LT	-6113
0)$	-6114
{(1	-6115
(0.8)	-6116
+1})$	-6117
▁refer	-6118
gonomet	-6119
011	-6120
▁algebraic	-6121
wink	-6122
fully	-6123
▁bipart	-6124
▁couple	-6125
intersect	-6126
▁MP	-6127
▁ce	-6128
▁focus	-6129
;5	-6130
-4\	-6131
▁asking	-6132
▁somewhere	-6133
3(	-6134
Two	-6135
▁0),	-6136
▁AED	-6137
▁boys	-6138
KH	-6139
NB	-6140
▁worth	-6141
▁endpoint	-6142
bt	-6143
6}\	-6144
▁=$	-6145
▁apart	-6146
▁tournament	-6147
EH	-6148
▁ED	-6149
▁ISL	-6150
iform	-6151
▁surpr	-6152
▁$+	-6153
▁Des	-6154
▁intu	-6155
▁affect	-6156
▁MD	-6157
▁0,1	-6158
▁Did	-6159
▁[0,	-6160
▁Dirichlet	-6161
▁$15$	-6162
linkers	-6163
/7	-6164
9}$	-6165
^2-(	-6166
ests	-6167
▁Very	-6168
}{2}$$	-6169
_1'	-6170
anks	-6171
bcase	-6172
▁behind	-6173
▁discus	-6174
▁interpret	-6175
0.3	-6176
▁0&	-6177
)=-1$.	-6178
+11	-6179
{18	-6180
while	-6181
▁chains	-6182
comp	-6183
▁repeating	-6184
▁==	-6185
▁hide	-6186
▁polygons	-6187
▁alternating	-6188
TT	-6189
???	-6190
▁OA	-6191
+2+\	-6192
▁delet	-6193
'.	-6194
ec	-6195
vw	-6196
▁ii	-6197
▁jumps	-6198
▁approx	-6199
CZ	-6200
RA	-6201
ipse	-6202
((-1.	-6203
arently	-6204
▁opinion	-6205
EN	-6206
nce	-6207
erent	-6208
jp	-6209
}}&	-6210
▁generating	-6211
dist	-6212
uted	-6213
+1}}$	-6214
▁bounding	-6215
St	-6216
▁\((	-6217
▁rid	-6218
_{12}	-6219
▁longest	-6220
{1\	-6221
haps	-6222
}^+$	-6223
▁arranged	-6224
▁blackboard	-6225
QE	-6226
ty	-6227
▁$16$	-6228
▁Simp	-6229
atives	-6230
▁member	-6231
▁ff	-6232
^2=4	-6233
XO	-6234
▁py	-6235
-2)$	-6236
▁sugg	-6237
_2+...+	-6238
substack	-6239
▁included	-6240
▁constraint	-6241
-1|	-6242
▁Geo	-6243
hdots	-6244
▁1)$,	-6245
▁Hint	-6246
▁kill	-6247
ference	-6248
,\,\,\,\	-6249
▁towards	-6250
▁additive	-6251
HK	-6252
uu	-6253
(1/	-6254
))=2	-6255
=1}^\	-6256
▁$(*)$	-6257
▁motivated	-6258
▁procedure	-6259
▁rectangular	-6260
MY	-6261
_{2}\	-6262
▁stru	-6263
positive	-6264
CS	-6265
▁minus	-6266
-1)}{2}	-6267
▁suffice	-6268
▁peb	-6269
▁finishing	-6270
cn	-6271
pk	-6272
010	-6273
▁laz	-6274
Sigma	-6275
▁Calcul	-6276
▁success	-6277
▁$\{\	-6278
▁fail	-6279
▁vice	-6280
anding	-6281
▁repres	-6282
▁surface	-6283
SolutionThe	-6284
-2(	-6285
▁Ana	-6286
▁Its	-6287
4,5	-6288
off	-6289
(180	-6290
▁$2,	-6291
cyclic	-6292
}},	-6293
-2)^2	-6294
imilic	-6295
▁joining	-6296
▁analogous	-6297
TP	-6298
cks	-6299
\},\	-6300
idean	-6301
▁wouldn	-6302
▁contestants	-6303
fer	-6304
wart	-6305
▁2^2	-6306
)^2=\	-6307
▁against	-6308
EQ	-6309
▁liter	-6310
ER	-6311
(1)}	-6312
}\]"	-6313
▁\{\	-6314
▁Best	-6315
......	-6316
▁started	-6317
-3)	-6318
_2^	-6319
)}\\	-6320
^{12}	-6321
ividing	-6322
▁anyway	-6323
Ch	-6324
~$	-6325
raz	-6326
▁$5\	-6327
▁Chinese	-6328
▁neighbor	-6329
’$	-6330
}{8}	-6331
▁0}^{	-6332
ematics	-6333
▁specific	-6334
}/	-6335
▁CX	-6336
^2)-	-6337
asty	-6338
▁cla	-6339
(-1)=	-6340
▁Your	-6341
ortion	-6342
{6}	-6343
Call	-6344
▁Putting	-6345
▁AZ	-6346
-2)\	-6347
(1));	-6348
PQR	-6349
}{{	-6350
etric	-6351
inu	-6352
▁eight	-6353
▁allows	-6354
▁regardless	-6355
oy	-6356
}{11	-6357
▁0,$	-6358
▁page	-6359
▁water	-6360
▁completing	-6361
▁Mathlinkers	-6362
▁counterexample	-6363
One	-6364
soci	-6365
-1}}\	-6366
▁recurs	-6367
▁Radical	-6368
▁Pigeonhole	-6369
=90$	-6370
]}{[	-6371
}_{&	-6372
▁monic	-6373
ccording	-6374
▁introdu	-6375
▁bipartite	-6376
▁certainly	-6377
0.2	-6378
4}$	-6379
▁#2	-6380
▁gra	-6381
▁subg	-6382
▁picking	-6383
IS	-6384
+1|	-6385
▁span	-6386
▁simpler	-6387
▁binomial	-6388
▁1,$	-6389
inary	-6390
inter	-6391
white	-6392
{1}{4}\	-6393
▁circumcentre	-6394
str	-6395
▁cy	-6396
(0.4)	-6397
rical	-6398
▁uniform	-6399
;|	-6400
=4$.	-6401
bigcup	-6402
Al	-6403
▁$1-	-6404
inders	-6405
▁Apply	-6406
Observe	-6407
▁travel	-6408
▁inclusive	-6409
▁represents	-6410
YA	-6411
ome	-6412
sol	-6413
(1)=1	-6414
orter	-6415
▁converges	-6416
5-	-6417
4,1	-6418
can	-6419
{21	-6420
_{200	-6421
4(	-6422
_1)=	-6423
After	-6424
▁Ptolemy	-6425
▁noticed	-6426
▁textLet	-6427
QN	-6428
}^{+	-6429
▁regards	-6430
}.$"	-6431
empty	-6432
▁guys	-6433
▁closest	-6434
▁application	-6435
ta	-6436
^2|	-6437
atal	-6438
▁Ref	-6439
ramid	-6440
▁view	-6441
{{{	-6442
▁palind	-6443
^0	-6444
^2+8	-6445
bine	-6446
)+3	-6447
you	-6448
})(	-6449
▁bx	-6450
▁$."	-6451
▁stre	-6452
number	-6453
{1}{3}\	-6454
(1.	-6455
1,1	-6456
als	-6457
▁Sch	-6458
ifying	-6459
▁forum	-6460
FM	-6461
LD	-6462
▁New	-6463
{4}{3}	-6464
▁$\{1,2	-6465
iques	-6466
▁lowest	-6467
▁confused	-6468
HG	-6469
+2(	-6470
^2-5	-6471
▁6$,	-6472
_1^{\	-6473
rency	-6474
▁1}$.	-6475
=30	-6476
▁AG	-6477
▁Once	-6478
▁width	-6479
och	-6480
▁tal	-6481
▁yeah	-6482
▁rotate	-6483
▁perspect	-6484
▁combining	-6485
vin	-6486
▁1)\	-6487
▁super	-6488
+100	-6489
▁lets	-6490
(0.8));	-6491
/2\	-6492
Fin	-6493
▁zx	-6494
artes	-6495
slash	-6496
}{=}(	-6497
▁$(2,	-6498
▁past	-6499
▁Anyway	-6500
▁Lagrange	-6501
▁continuity	-6502
!!!	-6503
▁chose	-6504
▁moved	-6505
▁weird	-6506
{1}{2}+\	-6507
▁reference	-6508
0,$	-6509
mer	-6510
▁gr	-6511
ands	-6512
romin	-6513
{2}$.	-6514
{1}{2}$,	-6515
[0	-6516
ya	-6517
▁YZ	-6518
With	-6519
efully	-6520
▁trees	-6521
▁linearly	-6522
inet	-6523
}{1}	-6524
eness	-6525
ek	-6526
((3	-6527
▁$3^{	-6528
(1)=1$.	-6529
bigstar	-6530
▁$\{1,2,\	-6531
(3,	-6532
=45	-6533
+2}=	-6534
▁2013	-6535
▁picks	-6536
_{0}^{\	-6537
▁integr	-6538
▁previously	-6539
_2(\	-6540
▁neg	-6541
▁$15	-6542
▁pyramid	-6543
▁suitable	-6544
4-	-6545
▁7.	-6546
arij	-6547
^{100}	-6548
▁planes	-6549
▁located	-6550
IQ	-6551
▁AEB	-6552
isector	-6553
opefully	-6554
Equ	-6555
^2.	-6556
▁differentiable	-6557
Im	-6558
iar	-6559
▁2021	-6560
▁indic	-6561
version	-6562
▁overlap	-6563
+15	-6564
▁cant	-6565
▁rabb	-6566
PL	-6567
bal	-6568
_1},	-6569
▁198	-6570
▁road	-6571
▁rules	-6572
▁originally	-6573
(12	-6574
▁receive	-6575
sc	-6576
=16	-6577
_{5	-6578
}{9}	-6579
▁lazy	-6580
$.)	-6581
▁$25	-6582
▁12\	-6583
▁products	-6584
-3,	-6585
All	-6586
/2$,	-6587
▁Cos	-6588
struct	-6589
▁Either	-6590
▁entirely	-6591
MS	-6592
▁48	-6593
ably	-6594
▁although	-6595
orn	-6596
angu	-6597
outu	-6598
▁7$.	-6599
▁circular	-6600
}]	-6601
)=2\	-6602
thus	-6603
{1}{2^{	-6604
▁ellipse	-6605
▁matches	-6606
▁equalities	-6607
geo	-6608
})^	-6609
eared	-6610
▁multiplied	-6611
▁Lines	-6612
▁associ	-6613
▁triangular	-6614
▁]	-6615
^{6	-6616
▁(6	-6617
▁0;	-6618
▁7\	-6619
)+1$	-6620
rown	-6621
ster	-6622
▁CBD	-6623
▁send	-6624
}{2}}\	-6625
▁Subtracting	-6626
▁(0.	-6627
▁rank	-6628
▁worked	-6629
)$:	-6630
ABE	-6631
▁Start	-6632
▁arguments	-6633
▁8\	-6634
▁Same	-6635
!$.	-6636
▁Pa	-6637
chang	-6638
▁related	-6639
SD	-6640
mond	-6641
+1)^{	-6642
mathop	-6643
})}	-6644
▁Try	-6645
cq	-6646
▁pure	-6647
▁immediate	-6648
XF	-6649
(3.	-6650
(0,\	-6651
▁van	-6652
▁subt	-6653
▁subsequence	-6654
bably	-6655
_0(	-6656
_3)	-6657
bad	-6658
((-3.	-6659
NK	-6660
sf	-6661
-2}{	-6662
^{2}}	-6663
)^2}+\	-6664
▁Invert	-6665
▁trigonomet	-6666
Ok	-6667
990	-6668
▁front	-6669
▁shaded	-6670
▁rationals	-6671
BOC	-6672
▁MA	-6673
ument	-6674
▁weak	-6675
▁Sines	-6676
ifically	-6677
▁conclud	-6678
▁deleted	-6679
▁shorter	-6680
cb	-6681
)},	-6682
EK	-6683
zer	-6684
▁2}$	-6685
▁7$,	-6686
^{2}=	-6687
▁formul	-6688
▁extended	-6689
▁remainders	-6690
▁simplifying	-6691
*5	-6692
avid	-6693
▁\{1	-6694
altitude	-6695
▁fontsize	-6696
-1=(	-6697
90-\	-6698
\}_{	-6699
{3}{4	-6700
▁prop	-6701
▁conca	-6702
▁apples	-6703
bcd	-6704
fra	-6705
^3-2	-6706
onian	-6707
▁versa	-6708
▁shortest	-6709
tw	-6710
,2$	-6711
▁entry	-6712
▁31	-6713
▁na	-6714
▁3)$	-6715
▁=2	-6716
}{10}	-6717
))&	-6718
-1\}$	-6719
▁Only	-6720
OY	-6721
SM	-6722
(2-	-6723
▁1-\	-6724
{1}{8	-6725
▁fairly	-6726
▁Induction	-6727
imilicenter	-6728
lane	-6729
pied	-6730
▁semi	-6731
▁learn	-6732
▁painted	-6733
ke	-6734
lly	-6735
▁XD	-6736
_4$.	-6737
▁concurrency	-6738
▁circumference	-6739
wu	-6740
▁fav	-6741
mitted	-6742
▁lamps	-6743
▁reaches	-6744
▁appeared	-6745
YB	-6746
-(\	-6747
314	-6748
-2}+	-6749
{3}\	-6750
▁0}$	-6751
▁\\&	-6752
phant	-6753
▁(-0.	-6754
▁Solve	-6755
▁translation	-6756
gn	-6757
▁lay	-6758
((-2.	-6759
▁roads	-6760
▁33	-6761
▁CDE	-6762
links	-6763
othing	-6764
KQ	-6765
)=2$.	-6766
.""	-6767
See	-6768
▁squarefree	-6769
;=(	-6770
_4$,	-6771
▁APC	-6772
▁2009	-6773
▁2024	-6774
▁adds	-6775
▁cardinality	-6776
▁convenience	-6777
lab	-6778
{1}	-6779
+2)$	-6780
when	-6781
orage	-6782
proof	-6783
{4}$,	-6784
}:	-6785
Add	-6786
▁Ax	-6787
((1.	-6788
sity	-6789
▁8$.	-6790
ABP	-6791
▁sunk	-6792
▁Number	-6793
▁Recall	-6794
▁country	-6795
=18	-6796
▁Chen	-6797
^4+2	-6798
▁seeing	-6799
ES	-6800
Pi	-6801
3,1	-6802
_1),	-6803
uthor	-6804
▁bunch	-6805
▁decided	-6806
▁summation	-6807
\|	-6808
▁$[0,	-6809
▁losing	-6810
▁mapped	-6811
▁eliminate	-6812
▁externally	-6813
NO	-6814
TH	-6815
};	-6816
((3.	-6817
▁denominators	-6818
DR	-6819
QX	-6820
▁11,	-6821
after	-6822
▁appropri	-6823
}-2	-6824
^3+4	-6825
▁PBA	-6826
▁circumcenters	-6827
120	-6828
sig	-6829
}$)	-6830
(0,1	-6831
^2\]	-6832
well	-6833
imgur	-6834
lected	-6835
▁OK	-6836
####	-6837
▁DCB	-6838
▁(1),	-6839
▁played	-6840
▁sunken	-6841
▁children	-6842
At	-6843
6862	-6844
^2.$	-6845
{10}	-6846
}-1)	-6847
▁$$"	-6848
▁self	-6849
▁depending	-6850
▁magnitude	-6851
'&	-6852
FH	-6853
ae	-6854
▁(4,	-6855
▁2010	-6856
▁bases	-6857
DS	-6858
▁IN	-6859
=5$,	-6860
selves	-6861
($	-6862
_6$	-6863
▁34	-6864
▁9.	-6865
_0)$	-6866
_{11	-6867
▁$10^	-6868
▁Wait	-6869
▁explan	-6870
▁SolutionWe	-6871
[2	-6872
-1}}$	-6873
▁diameters	-6874
▁statements	-6875
'.$	-6876
_{1}=	-6877
▁cost	-6878
▁head	-6879
▁estimate	-6880
AXY	-6881
{(3	-6882
▁3-	-6883
)^2&	-6884
▁fit	-6885
▁PCB	-6886
plete	-6887
,0)--(	-6888
▁options	-6889
172	-6890
▁DI	-6891
▁wlog	-6892
_4+	-6893
{5\	-6894
[0,1	-6895
▁$~$	-6896
▁Else	-6897
{3}{4}	-6898
ifferent	-6899
▁leaving	-6900
▁complicated	-6901
▁distribution	-6902
Or	-6903
▁-4	-6904
mark	-6905
geogebra	-6906
▁density	-6907
ZX	-6908
osing	-6909
▁links	-6910
KX	-6911
'}\	-6912
▁$1&	-6913
fbox	-6914
▁$(-	-6915
agram	-6916
▁1$."	-6917
,2)	-6918
125	-6919
=7$	-6920
▁\:	-6921
▁Red	-6922
paring	-6923
▁$1,2,\	-6924
otivation	-6925
▁inradius	-6926
▁approaches	-6927
▁multiplicity	-6928
6&	-6929
ZC	-6930
(0.7)	-6931
^2}$,	-6932
997	-6933
^{*}	-6934
gant	-6935
(0))=	-6936
ruple	-6937
▁till	-6938
▁\{0,1	-6939
ht	-6940
▁TH	-6941
;...	-6942
▁2),	-6943
mondy	-6944
write	-6945
}{5}$	-6946
▁Iran	-6947
▁evaluate	-6948
RD	-6949
BPC	-6950
;2$,	-6951
{4}$.	-6952
▁$50$	-6953
)$$$$\	-6954
▁copies	-6955
=0;	-6956
sup	-6957
▁ug	-6958
+1,\	-6959
oman	-6960
▁produce	-6961
▁oct	-6962
=2}^{	-6963
▁rabbit	-6964
66666666	-6965
?)	-6966
ds	-6967
{3,	-6968
}}(	-6969
card	-6970
▁AQP	-6971
^2}{\	-6972
iving	-6973
newline	-6974
▁26	-6975
▁Ap	-6976
▁Pr	-6977
}-1$	-6978
▁Yeah	-6979
ABCDEF	-6980
▁verified	-6981
12,	-6982
{40	-6983
,100	-6984
=1,\	-6985
▁2023	-6986
▁doll	-6987
TeX	-6988
^2/	-6989
▁BAE	-6990
▁bag	-6991
osition	-6992
ymptote	-6993
▁arrangements	-6994
▁..	-6995
\}.$	-6996
ulous	-6997
=1}^{201	-6998
▁triplets	-6999
QS	-7000
_{0	-7001
(1)$,	-7002
otent	-7003
▁fore	-7004
levant	-7005
{1}{1-	-7006
▁denoted	-7007
▁reciprocal	-7008
Rr	-7009
^2:	-7010
▁1&	-7011
▁29	-7012
^2-6	-7013
▁APD	-7014
▁BOC	-7015
▁luck	-7016
▁langu	-7017
▁observations	-7018
}{2})	-7019
▁$25$	-7020
unction	-7021
▁exponents	-7022
(3^	-7023
ious	-7024
▁$(3,	-7025
▁Fact	-7026
▁ordering	-7027
bk	-7028
sect	-7029
▁AFE	-7030
}{2}+	-7031
▁cosine	-7032
▁$-2	-7033
▁(-1)	-7034
▁wall	-7035
{1}{2\	-7036
valuate	-7037
9}\	-7038
cis	-7039
015	-7040
ales	-7041
{5}$	-7042
}+1$	-7043
▁1\]	-7044
(0)$,	-7045
▁quadruple	-7046
Sh	-7047
,2^	-7048
▁72	-7049
▁9\	-7050
▁id	-7051
ivide	-7052
esides	-7053
▁struct	-7054
~~~~~~~~	-7055
▁paramet	-7056
eng	-7057
_1}=\	-7058
▁Plug	-7059
▁multiplication	-7060
^3,	-7061
olf	-7062
-1)-	-7063
^2}=	-7064
plex	-7065
▁quot	-7066
+1+\	-7067
}}$$	-7068
▁2.$	-7069
▁2012	-7070
▁clip	-7071
artesian	-7072
▁air	-7073
▁dps	-7074
▁combinations	-7075
rals	-7076
▁trac	-7077
▁went	-7078
App	-7079
▁8.	-7080
▁Lo	-7081
5,0.	-7082
▁8$,	-7083
}{1-\	-7084
▁100$	-7085
▁dumb	-7086
▁exer	-7087
▁hits	-7088
mathlinks	-7089
▁attained	-7090
))(	-7091
00\	-7092
=-2	-7093
\\\	-7094
_2)$.	-7095
_2^2+	-7096
▁runs	-7097
▁Label	-7098
HN	-7099
017	-7100
137	-7101
\}=\	-7102
▁types	-7103
Problem	-7104
backslash	-7105
▁rigorous	-7106
ool	-7107
ugh	-7108
▁sn	-7109
▁Mean	-7110
▁xmin	-7111
-1}{2}}	-7112
=1+\	-7113
▁$1/	-7114
▁9$.	-7115
prove	-7116
▁separate	-7117
▁imaginary	-7118
RE	-7119
014	-7120
avi	-7121
▁2|	-7122
...\	-7123
▁90$	-7124
integ	-7125
▁2022	-7126
▁attached	-7127
▁partitions	-7128
FI	-7129
;3$	-7130
▁5)	-7131
▁$(0,1	-7132
▁teach	-7133
▁internally	-7134
_3&	-7135
^3+\	-7136
_3}{	-7137
forth	-7138
▁$\{2	-7139
{2}{3}\	-7140
▁According	-7141
▁Euclidean	-7142
jpg	-7143
▁FG	-7144
▁90^	-7145
cribe	-7146
▁$\{1	-7147
▁Alex	-7148
^{-1}\	-7149
▁60^{\	-7150
625	-7151
▁XC	-7152
((2.	-7153
,0)\	-7154
▁$3|	-7155
+1}-\	-7156
^2)$,	-7157
▁knight	-7158
▁characteristic	-7159
)+4	-7160
/10	-7161
^*,	-7162
reg	-7163
▁Ins	-7164
+2}+\	-7165
▁cause	-7166
▁noticing	-7167
Ap	-7168
,3)$	-7169
_{1,	-7170
▁sour	-7171
pecially	-7172
▁formulas	-7173
KI	-7174
yt	-7175
+1=\	-7176
6));	-7177
▁Due	-7178
▁2^{1	-7179
▁rooks	-7180
▁extremely	-7181
▁difficulty	-7182
▁4^	-7183
▁bd	-7184
▁Eng	-7185
{1}{5	-7186
▁Form	-7187
▁issue	-7188
▁likely	-7189
nc	-7190
002	-7191
99}	-7192
▁BN	-7193
})(\	-7194
KT	-7195
+2}-	-7196
^{-\	-7197
_{101	-7198
▁stay	-7199
+1)^2$	-7200
▁created	-7201
▁calculus	-7202
▁cru	-7203
▁object	-7204
sigmondy	-7205
▁concave	-7206
▁generate	-7207
XN	-7208
▁42	-7209
;2$.	-7210
▁BAP	-7211
▁xmax	-7212
▁ymax	-7213
▁rever	-7214
Az	-7215
'_{	-7216
▁aw	-7217
▁thank	-7218
987	-7219
ccc	-7220
▁la	-7221
-1})$	-7222
olves	-7223
dps	-7224
▁PE	-7225
▁dem	-7226
▁comment	-7227
-4$	-7228
▁ST	-7229
▁DAE	-7230
change	-7231
▁inner	-7232
▁approxim	-7233
db	-7234
678	-7235
_3,\	-7236
ysis	-7237
▁12,	-7238
▁aut	-7239
▁mer	-7240
▁viol	-7241
^2}{4}	-7242
005	-7243
▁Mu	-7244
(0)=0	-7245
}{3}$,	-7246
▁facts	-7247
itially	-7248
▁Remarks	-7249
lad	-7250
{3(	-7251
-3)(	-7252
,\,\,	-7253
(2),	-7254
▁2(\	-7255
istant	-7256
▁seven	-7257
▁triang	-7258
▁easiest	-7259
▁coincides	-7260
▁partitioned	-7261
QF	-7262
199	-7263
7}\	-7264
▁{4	-7265
gest	-7266
(0)^2	-7267
^{3}+	-7268
ulate	-7269
+1}{2}$	-7270
▁literally	-7271
6-	-7272
SI	-7273
xx	-7274
168	-7275
=1+	-7276
_4=	-7277
\{1,2	-7278
▁marks	-7279
enspace	-7280
=15	-7281
▁OB	-7282
rage	-7283
▁die	-7284
^{2}(	-7285
}{16}	-7286
▁gold	-7287
nected	-7288
▁stuck	-7289
▁trapezium	-7290
Use	-7291
{50	-7292
▁Tur	-7293
▁$30$	-7294
▁girl	-7295
centers	-7296
▁monoch	-7297
▁knowing	-7298
*4	-7299
=1-	-7300
▁ap	-7301
+2)\	-7302
39215	-7303
inetype	-7304
ask	-7305
case	-7306
▁sqrt	-7307
▁clarif	-7308
▁Checking	-7309
FX	-7310
)(-	-7311
012	-7312
=4\	-7313
▁orthocentre	-7314
}{12	-7315
▁Her	-7316
kf	-7317
_0-	-7318
}(2	-7319
{(1-	-7320
-1}{2	-7321
▁$13$	-7322
▁impl	-7323
^{2023}	-7324
▁inverses	-7325
mk	-7326
▁NT	-7327
▁ugly	-7328
▁exper	-7329
▁Mathematical	-7330
rol	-7331
▁kx	-7332
rome	-7333
▁lost	-7334
▁biggest	-7335
}=2\	-7336
▁$[\	-7337
▁111	-7338
▁depends	-7339
▁pointing	-7340
▁XB	-7341
ingu	-7342
XH	-7343
YD	-7344
:=\	-7345
pes	-7346
▁stack	-7347
▁pythag	-7348
▁relative	-7349
▁explanation	-7350
)\}$	-7351
^2=3	-7352
nice	-7353
icity	-7354
)--(0,	-7355
▁somewhat	-7356
LA	-7357
Ste	-7358
((0,0	-7359
▁myself	-7360
▁propos	-7361
+0	-7362
LE	-7363
})+	-7364
}=1$	-7365
▁""$	-7366
\{0,1	-7367
▁miles	-7368
ividual	-7369
▁accept	-7370
-90	-7371
lle	-7372
')$.	-7373
,0)$.	-7374
Taking	-7375
▁basis	-7376
▁Simson	-7377
▁Basically	-7378
br	-7379
+20	-7380
764	-7381
AIM	-7382
,2,2	-7383
▁${{	-7384
▁lik	-7385
,0)$,	-7386
)--(0.	-7387
Obviously	-7388
irs	-7389
▁4-	-7390
sibly	-7391
▁paired	-7392
▁equivale	-7393
▁Considering	-7394
HX	-7395
QY	-7396
TN	-7397
];	-7398
Sol	-7399
,3,\	-7400
▁1\\	-7401
(1)^2	-7402
labor	-7403
_{0}^{	-7404
▁vanish	-7405
(|	-7406
▁FD	-7407
,-0.	-7408
_3=\	-7409
▁$199	-7410
▁grade	-7411
Finally	-7412
▁generated	-7413
▁parallelograms	-7414
IO	-7415
cyan	-7416
▁$17	-7417
▁11$	-7418
{1}{6	-7419
▁1}$,	-7420
▁Unfortunately	-7421
TY	-7422
(60	-7423
=11	-7424
)}\]	-7425
phra	-7426
}{1+\	-7427
▁quart	-7428
!+	-7429
0\}$	-7430
▁penc	-7431
{1}{2},	-7432
▁recall	-7433
}}{2	-7434
lable	-7435
▁(2^{	-7436
9)	-7437
NL	-7438
ife	-7439
-1.$	-7440
=1.$	-7441
)\]\[	-7442
▁copy	-7443
11111111	-7444
-15	-7445
133	-7446
^3+1	-7447
youtu	-7448
▁Last	-7449
▁array	-7450
▁symbol	-7451
▁reading	-7452
+4$	-7453
APB	-7454
▁XA	-7455
such	-7456
lines	-7457
▁silly	-7458
implying	-7459
▁PO	-7460
+2+3	-7461
▁med	-7462
{3^	-7463
tood	-7464
▁9$,	-7465
}_{2}	-7466
▁scal	-7467
▁swapped	-7468
▁minimized	-7469
)?	-7470
4}\	-7471
_5,	-7472
▁hu	-7473
Does	-7474
▁$7$,	-7475
▁$2^{\	-7476
▁scores	-7477
▁incentre	-7478
;=2	-7479
non	-7480
pol	-7481
(10^	-7482
▁$3,	-7483
ABCDE	-7484
\]\[\	-7485
▁counts	-7486
▁island	-7487
▁backwards	-7488
^4(	-7489
▁HM	-7490
▁BEC	-7491
(10);	-7492
ivers	-7493
▁equally	-7494
018	-7495
lor	-7496
▁du	-7497
▁(4)	-7498
)^2$$	-7499
ancel	-7500
anges	-7501
▁Back	-7502
{5}{2}	-7503
▁combine	-7504
▁Assuming	-7505
po	-7506
5)$	-7507
(0)-	-7508
)^{1	-7509
wedge	-7510
▁fixing	-7511
▁pebbles	-7512
▁produces	-7513
TQ	-7514
_4\	-7515
▁^{	-7516
(3)=	-7517
_{0}^{1}	-7518
uous	-7519
▁(5,	-7520
▁$6$.	-7521
▁themselves	-7522
-1/	-7523
▁Te	-7524
_1+2	-7525
▁5^{	-7526
▁doc	-7527
genta	-7528
▁equid	-7529
▁stars	-7530
▁37	-7531
000$	-7532
ured	-7533
Point	-7534
magenta	-7535
){	-7536
2=	-7537
TF	-7538
,10	-7539
▁Le	-7540
▁OO	-7541
)))=	-7542
▁DBA	-7543
_{2}(	-7544
onius	-7545
{3}}{2}	-7546
LB	-7547
mis	-7548
▁}}	-7549
)=-\	-7550
Part	-7551
ideo	-7552
▁mut	-7553
▁Quad	-7554
▁knew	-7555
ailable	-7556
ultiply	-7557
▁anyways	-7558
▁monochromatic	-7559
Oh	-7560
▁Li	-7561
^2(2	-7562
yond	-7563
▁$0,1	-7564
▁$1$'	-7565
▁ymin	-7566
▁effect	-7567
Actually	-7568
!$,	-7569
004	-7570
AAAA	-7571
▁totally	-7572
▁Likewise	-7573
▁maximized	-7574
▁consequently	-7575
0:	-7576
XK	-7577
▁=(	-7578
▁Ha	-7579
emph	-7580
}=-\	-7581
mitte	-7582
{2}$,	-7583
(0.5));	-7584
▁linetype	-7585
▁everywhere	-7586
(1)-	-7587
efin	-7588
inguish	-7589
]-	-7590
▁DQ	-7591
(0.5)	-7592
tuples	-7593
▁Inter	-7594
▁draws	-7595
▁English	-7596
▁elegant	-7597
▁balanced	-7598
▁interested	-7599
================	-7600
bn	-7601
00$.	-7602
)^2+2	-7603
}{2}-	-7604
▁beads	-7605
▁books	-7606
{1}{3}$	-7607
TR	-7608
ems	-7609
hold	-7610
▁PQR	-7611
▁exs	-7612
}{4}}	-7613
▁criter	-7614
▁compare	-7615
LN	-7616
,12	-7617
▁BO	-7618
+1)&	-7619
▁preserves	-7620
;-	-7621
TK	-7622
..,	-7623
5^{	-7624
▁ME	-7625
+1)=2	-7626
+1)=\	-7627
+(2	-7628
▁1'	-7629
▁ka	-7630
6,7,	-7631
▁ACE	-7632
▁medians	-7633
▁exercise	-7634
▁rewritten	-7635
▁degenerate	-7636
jps	-7637
▁Tr	-7638
Easy	-7639
▁;)"	-7640
▁Car	-7641
_1=1$	-7642
rally	-7643
space	-7644
--------	-7645
has	-7646
cial	-7647
down	-7648
▁stays	-7649
▁elabor	-7650
omorphism	-7651
FT	-7652
^2\\	-7653
▁$1000$	-7654
',$	-7655
BDC	-7656
+1))	-7657
=180-	-7658
▁0.5;	-7659
▁User	-7660
▁node	-7661
{1}{6}	-7662
ulations	-7663
▁contributes	-7664
▁orientation	-7665
.."	-7666
0.$$	-7667
▁(10	-7668
▁placing	-7669
tag	-7670
▁BK	-7671
▁$50	-7672
▁MAA	-7673
{1000	-7674
▁fits	-7675
▁Geogebra	-7676
▁+(	-7677
▁Mon	-7678
▁iso	-7679
▁buck	-7680
amples	-7681
▁arrow	-7682
▁kinda	-7683
▁Dividing	-7684
▁guaranteed	-7685
AU	-7686
IY	-7687
iP	-7688
▁#1	-7689
▁NO	-7690
▁[1	-7691
kard	-7692
▁$67	-7693
▁AOB	-7694
▁{{\	-7695
▁edited	-7696
▁homogen	-7697
+13	-7698
;10	-7699
ollary	-7700
▁proofs	-7701
▁forward	-7702
▁Calculate	-7703
▁De	-7704
_3+\	-7705
rotfl	-7706
▁$6$,	-7707
▁Rear	-7708
;+	-7709
Wr	-7710
Hint	-7711
_1)+	-7712
zing	-7713
▁exterior	-7714
▁quadrant	-7715
▁available	-7716
▁structure	-7717
=3^	-7718
▁81	-7719
ches	-7720
ixed	-7721
▁PAC	-7722
▁dev	-7723
)^2=(	-7724
▁storage	-7725
▁neighbours	-7726
{60	-7727
▁BAM	-7728
Sketch	-7729
▁involving	-7730
EY	-7731
RR	-7732
006	-7733
▁67	-7734
rable	-7735
▁month	-7736
▁forget	-7737
kd	-7738
\}=	-7739
}-1\	-7740
▁troll	-7741
▁source	-7742
▁identically	-7743
FK	-7744
io	-7745
kc	-7746
eres	-7747
}^{2	-7748
-2}$.	-7749
▁attack	-7750
▁miquel	-7751
▁cyclically	-7752
SQ	-7753
1{\	-7754
auss	-7755
▁PHP	-7756
▁swe	-7757
▁doesnt	-7758
▁fractional	-7759
1=	-7760
▁\|	-7761
▁$30	-7762
iding	-7763
▁document	-7764
▁concludes	-7765
][	-7766
^4}	-7767
cancel	-7768
▁analysis	-7769
▁touching	-7770
mixtilinear	-7771
NT	-7772
QH	-7773
016	-7774
▁nx	-7775
▁$$3	-7776
^{-1}$	-7777
▁famil	-7778
▁orthic	-7779
▁Zsigmondy	-7780
{.	-7781
Why	-7782
yes	-7783
{-2	-7784
6,0.	-7785
▁EAB	-7786
gy	-7787
4,4	-7788
Bbb	-7789
hip	-7790
lay	-7791
▁$90	-7792
▁boy	-7793
▁Titu	-7794
▁2^{2^	-7795
▁carry	-7796
198	-7797
▁(7	-7798
)=(3	-7799
_2,$	-7800
▁13,	-7801
-1}{2}\	-7802
▁beyond	-7803
▁Cosines	-7804
▁scalene	-7805
also	-7806
wiki	-7807
▁CDA	-7808
▁rate	-7809
▁happy	-7810
clusion	-7811
▁PX	-7812
^4}{	-7813
▁$0.	-7814
▁(**	-7815
▁$[0,1	-7816
392156862	-7817
{49	-7818
((4.	-7819
)^2)	-7820
▁BHC	-7821
▁shouldn	-7822
▁OC	-7823
+1.$	-7824
=5$.	-7825
^{101	-7826
▁EGMO	-7827
▁legs	-7828
)^2}{(	-7829
▁optim	-7830
.4	-7831
qn	-7832
=20	-7833
▁ABM	-7834
+1},\	-7835
▁$9$,	-7836
)^{201	-7837
{3}{2}\	-7838
▁separately	-7839
=13	-7840
▁Bump	-7841
▁guessed	-7842
dimension	-7843
kl	-7844
128	-7845
=4,	-7846
CDE	-7847
Int	-7848
▁10.	-7849
▁Bon	-7850
retty	-7851
▁moreover	-7852
▁zz	-7853
{2}}	-7854
▁$2|	-7855
▁-1)	-7856
▁\\\	-7857
_2)$,	-7858
▁ended	-7859
▁contribute	-7860
▁simplified	-7861
▁interpretation	-7862
YM	-7863
uts	-7864
{30	-7865
33333333	-7866
underset	-7867
etrically	-7868
frak	-7869
▁0\\	-7870
▁heav	-7871
▁told	-7872
images	-7873
▁arrows	-7874
▁bashed	-7875
possibly	-7876
▁subsequ	-7877
ZA	-7878
(45	-7879
oPS	-7880
▁fully	-7881
▁magic	-7882
▁invertible	-7883
AV	-7884
SH	-7885
Wiki	-7886
(0.6)	-7887
)^2-(	-7888
endre	-7889
▁often	-7890
▁candies	-7891
▁completed	-7892
▁furthermore	-7893
9,2	-7894
▁af	-7895
0,1,	-7896
column	-7897
rr	-7898
(11	-7899
345	-7900
▁FC	-7901
▁$18	-7902
▁$24	-7903
▁excenter	-7904
bI	-7905
▁	-7906
e	-7907
t	-7908
a	-7909
i	-7910
n	-7911
o	-7912
$	-7913
s	-7914
r	-7915
l	-7916
h	-7917
c	-7918
\	-7919
d	-7920
f	-7921
m	-7922
u	-7923
{	-7924
}	-7925
,	-7926
g	-7927
p	-7928
1	-7929
2	-7930
b	-7931
)	-7932
(	-7933
.	-7934
w	-7935
y	-7936
=	-7937
+	-7938
_	-7939
-	-7940
x	-7941
^	-7942
v	-7943
0	-7944
A	-7945
q	-7946
k	-7947
B	-7948
3	-7949
C	-7950
"	-7951
4	-7952
T	-7953
P	-7954
;	-7955
I	-7956
S	-7957
D	-7958
5	-7959
'	-7960
&	-7961
:	-7962
6	-7963
N	-7964
9	-7965
F	-7966
M	-7967
L	-7968
E	-7969
8	-7970
7	-7971
[	-7972
]	-7973
O	-7974
z	-7975
H	-7976
/	-7977
X	-7978
R	-7979
W	-7980
|	-7981
j	-7982
Q	-7983
G	-7984
K	-7985
Y	-7986
*	-7987
?	-7988
Z	-7989
!	-7990
J	-7991
U	-7992
V	-7993
~	-7994
#	-7995
’	-7996
